{
  "</s>": 0,
  "<unk>": 1,
  ",": 2,
  ".": 3,
  "\u2581de": 4,
  "\u2581la": 5,
  "\u2581que": 6,
  "\u2581eta": 7,
  "\u2581y": 8,
  "\u2581en": 9,
  "\u2581a": 10,
  "\u2581el": 11,
  "-": 12,
  "s": 13,
  "\u2581-": 14,
  "a": 15,
  "?": 16,
  "\u2581los": 17,
  ":": 18,
  "\u2581se": 19,
  "\u2581da": 20,
  "\u2581ez": 21,
  "ak": 22,
  "\u2581un": 23,
  "\u2581del": 24,
  "\u2581las": 25,
  "\u2581no": 26,
  "!": 27,
  "n": 28,
  "\u2581con": 29,
  "\u2581por": 30,
  "ko": 31,
  "\u2581una": 32,
  "\u2581\u00bf": 33,
  "\u2581bat": 34,
  "\u2581es": 35,
  "en": 36,
  "\u2581su": 37,
  "\u2581para": 38,
  "\u2581lo": 39,
  ";": 40,
  "\u2581al": 41,
  "ren": 42,
  "...": 43,
  "\u2581zuen": 44,
  "k": 45,
  "\u2581ere": 46,
  "\u2581(": 47,
  "\u2581zen": 48,
  "\u2581\"": 49,
  "\u2581egin": 50,
  "aren": 51,
  ")": 52,
  "z": 53,
  "\u2581du": 54,
  "an": 55,
  "\u2581como": 56,
  "\u2581izan": 57,
  "\u2581m\u00e1s": 58,
  "\u2581\u00a1": 59,
  "\u2581El": 60,
  "\u2581o": 61,
  "\u2581bere": 62,
  "\u2581me": 63,
  "ra": 64,
  "\u2581La": 65,
  "\u2581dira": 66,
  "\u2581No": 67,
  "rik": 68,
  "ek": 69,
  "\u2581Ez": 70,
  "\u2581behar": 71,
  "ri": 72,
  "\u2581dut": 73,
  "\u2581le": 74,
  "\u2581edo": 75,
  "\u2581": 76,
  "r": 77,
  "\u2581sus": 78,
  "\u2581A": 79,
  "\u2581nahi": 80,
  "\u2581egiten": 81,
  "\u2581ha": 82,
  "\u2581hori": 83,
  "\"": 84,
  "\u2581En": 85,
  "\u2581si": 86,
  "\u2581baina": 87,
  "etan": 88,
  "\u2581mi": 89,
  "\u2581Eta": 90,
  "\u2581beste": 91,
  "\u2581pero": 92,
  "\u2581den": 93,
  "\u2581Y": 94,
  "tik": 95,
  "\u2581duzu": 96,
  "ta": 97,
  "\u2581esan": 98,
  "\u2581sobre": 99,
  "\u2581izango": 100,
  "\u2581dute": 101,
  "\u2581dago": 102,
  "o": 103,
  "\u2581todo": 104,
  "\u2581era": 105,
  "/": 106,
  "es": 107,
  "do": 108,
  "\u2581est\u00e1": 109,
  "\u2581hab\u00eda": 110,
  "\u2581este": 111,
  "da": 112,
  "la": 113,
  "\u2581ari": 114,
  "ari": 115,
  "se": 116,
  "\u2581hau": 117,
  "\u2581bien": 118,
  "\u2581te": 119,
  "\u2581esta": 120,
  "\u2581ziren": 121,
  "\u2581ser": 122,
  "\u2581baino": 123,
  "\u2581sin": 124,
  "\u2581qu\u00e9": 125,
  "\u2581ni": 126,
  "\u2581cuando": 127,
  "\u2581parte": 128,
  "ez": 129,
  "e": 130,
  "ei": 131,
  "\u2581muy": 132,
  "\".": 133,
  "\u2581ya": 134,
  "\u2581son": 135,
  "\u2581zuten": 136,
  "te": 137,
  "\u2581bezala": 138,
  "\u2581Baina": 139,
  "\u2581Es": 140,
  "\u2581Pero": 141,
  "\u2581Euskal": 142,
  "\u2581duen": 143,
  "ba": 144,
  "\u2581dos": 145,
  "le": 146,
  "\u2581bi": 147,
  "\u2581han": 148,
  "ean": 149,
  "tu": 150,
  "\u2581entre": 151,
  "A": 152,
  "\u2581dugu": 153,
  "\u2581zion": 154,
  "\u2581\u00e9l": 155,
  "\u2581Se": 156,
  "lo": 157,
  "\u2581gabe": 158,
  "Qu\u00e9": 159,
  "\u2581hasta": 160,
  "\u2581nuen": 161,
  "\u2581baten": 162,
  "\u2581yo": 163,
  "\u2581batean": 164,
  "\u2581ditu": 165,
  "\u2581naiz": 166,
  "tzen": 167,
  "\u2581nire": 168,
  "rekin": 169,
  "\u2581vez": 170,
  "\u2581mismo": 171,
  "\u2581San": 172,
  "i": 173,
  "\u2581e": 174,
  "\u2581dela": 175,
  "\u2581todos": 176,
  "\u2581tambi\u00e9n": 177,
  "me": 178,
  "\u2581puede": 179,
  "\u2581Los": 180,
  "\u2581Zer": 181,
  "\u2581eman": 182,
  "\u2581zer": 183,
  "\u2581aqu\u00ed": 184,
  "'": 185,
  "\u2581nos": 186,
  "eko": 187,
  "ndo": 188,
  "go": 189,
  "\u2581egingo": 190,
  ").": 191,
  "mos": 192,
  "\u2581eso": 193,
  "\u2581desde": 194,
  "\u2581diren": 195,
  "d": 196,
  "y": 197,
  "\u2581as\u00ed": 198,
  "t": 199,
  "\u2581oso": 200,
  "\u2581tan": 201,
  "\u2581De": 202,
  "\u2581Por": 203,
  "\u2581hay": 204,
  "ekin": 205,
  "\u2581gero": 206,
  "\u2581bai": 207,
  "mente": 208,
  "\u2581tiempo": 209,
  "\u2581gure": 210,
  "\u2581Si": 211,
  "\u2581zituen": 212,
  "\u2581tiene": 213,
  "\u2581ella": 214,
  "\u2581ezin": 215,
  "\u2581artean": 216,
  "\u2581Me": 217,
  "\u2581>": 218,
  "\u2581arte": 219,
  "no": 220,
  "\u2581a\u00f1os": 221,
  "\u2581zure": 222,
  "\u2581Lo": 223,
  "\u2581hartu": 224,
  "\u2581fue": 225,
  "\u2581gehiago": 226,
  "\u2581tu": 227,
  "No": 228,
  "\u2581Bai": 229,
  "\u2581algo": 230,
  "\u2581zara": 231,
  "\u2581%": 232,
  "\u2581hacer": 233,
  "\u2581esto": 234,
  "\u2581duten": 235,
  "\u2581_": 236,
  "\u2581hombre": 237,
  "\u2581d\u00eda": 238,
  "tan": 239,
  "\u2581nada": 240,
  "\u2581casa": 241,
  "\u2581joan": 242,
  "\u2581otro": 243,
  "\u2581'": 244,
  "\u2581ematen": 245,
  "),": 246,
  "\u2581porque": 247,
  "\u2581zegoen": 248,
  "\u2581s\u00ed": 249,
  "\u2581uno": 250,
  "rako": 251,
  "de": 252,
  "tzeko": 253,
  "etako": 254,
  "\u2581estaba": 255,
  "\u2581cada": 256,
  "\u2581ikusi": 257,
  "\u2581[": 258,
  "]": 259,
  "\u2581otra": 260,
  "\u2581hitz": 261,
  "\u2581vida": 262,
  "\u2581haren": 263,
  "\u2581S\u00ed": 264,
  "ki": 265,
  "ik": 266,
  "\u2581he": 267,
  "\u2581uste": 268,
  "esan": 269,
  "\u2581bada": 270,
  "\u2581Las": 271,
  "arekin": 272,
  "\u2581I": 273,
  "\u2581guztiak": 274,
  "\u2581gauza": 275,
  "\u2581tanto": 276,
  "\u2581batek": 277,
  "\u00f3": 278,
  "\u2581batzuk": 279,
  "l": 280,
  "\u25811": 281,
  "era": 282,
  "\u2581O": 283,
  "\u2581egiteko": 284,
  "ka": 285,
  "\",": 286,
  "\u2581s\u00f3lo": 287,
  "\u2581baita": 288,
  "\u2581cosas": 289,
  "\u2581ahal": 290,
  "\u2581hain": 291,
  "\u2581dio": 292,
  "\u2581todas": 293,
  "\u2581asko": 294,
  "\u00e9": 295,
  "\u2581usted": 296,
  "\u2581lehen": 297,
  "\u2581bera": 298,
  "\u00e1": 299,
  "\u2581zela": 300,
  "\u2581E": 301,
  "\u2581ahora": 302,
  "\u2581batera": 303,
  "\u2581ese": 304,
  "\u2581forma": 305,
  "\u2581hura": 306,
  "\u2581ellos": 307,
  "\u2581ver": 308,
  "to": 309,
  "\u2581decir": 310,
  "\u2581donde": 311,
  "\u2581horiek": 312,
  "\u2581siempre": 313,
  "\u2581honetan": 314,
  "\u2581mucho": 315,
  "\u2581egon": 316,
  "\u2581sido": 317,
  "\u2581bakarrik": 318,
  "\u2581::": 319,
  "\u2581hemen": 320,
  "ro": 321,
  "\u2581les": 322,
  "S": 323,
  "\u2581re": 324,
  "\u2581mundo": 325,
  "\u2581Al": 326,
  "\u25813": 327,
  "\u2581gran": 328,
  "\u2581ondoren": 329,
  "\u2581poco": 330,
  "\u2581dena": 331,
  "\u2581-\u00bf": 332,
  "c": 333,
  "\u2581dijo": 334,
  "\u2581nola": 335,
  "\u2581otros": 336,
  "na": 337,
  "\u2581bizi": 338,
  "\u2581batez": 339,
  "\u2581alde": 340,
  "\u2581beren": 341,
  "\u2581lugar": 342,
  "\u2581hacia": 343,
  "Y": 344,
  "\u2581hasi": 345,
  "\u2581m\u00ed": 346,
  "\u2581esa": 347,
  "\u2581egun": 348,
  "\u2581sino": 349,
  "\u2581pues": 350,
  "\u2581nik": 351,
  "u": 352,
  "\u2581antes": 353,
  "\u2581orain": 354,
  "tzat": 355,
  "\u2581hace": 356,
  "on": 357,
  "f": 358,
  "ron": 359,
  "\u2581menos": 360,
  "zko": 361,
  "\u2581lan": 362,
  "-.": 363,
  "\u2581nintzen": 364,
  "\u2581hecho": 365,
  "\u2581beharko": 366,
  "ga": 367,
  "\u2581urte": 368,
  "dijo": 369,
  "\u2581berri": 370,
  "\u2581Vasco": 371,
  "\u2581personas": 372,
  "\u25812": 373,
  "m": 374,
  "ci\u00f3n": 375,
  "\u2581S": 376,
  "\u2581momento": 377,
  "\u2581mejor": 378,
  "\u2581utzi": 379,
  "\u2581gara": 380,
  "\u2581despu\u00e9s": 381,
  "\u2581berriz": 382,
  "\u2581C": 383,
  "\u2581beti": 384,
  "\u2581est\u00e1n": 385,
  "\u2581horren": 386,
  "\u2581trabajo": 387,
  "\u2581tres": 388,
  "\u2581Yo": 389,
  "Ez": 390,
  "\u2581Su": 391,
  "ma": 392,
  "\u2581in": 393,
  "tako": 394,
  "\u2581sea": 395,
  "\u2581misma": 396,
  "ti": 397,
  "az": 398,
  "\u2581Le": 399,
  "\u2581Un": 400,
  "\u2581tal": 401,
  "C": 402,
  "\u2581ezer": 403,
  "\u2581a\u00f1o": 404,
  "co": 405,
  "\u2581Con": 406,
  "\u2581fin": 407,
  "tzea": 408,
  "\u2581hala": 409,
  "\u2581contra": 410,
  "\u2581dituzte": 411,
  "\u2581toda": 412,
  "\u2581bertan": 413,
  "re": 414,
  "eta": 415,
  "\u2581horretan": 416,
  "\u2581K": 417,
  "\u2581horrek": 418,
  "\u2581hombres": 419,
  "\u2581hiru": 420,
  "\u2581ten\u00eda": 421,
  "\u2581B": 422,
  "\u2581se\u00f1or": 423,
  "\u2581jauna": 424,
  "etatik": 425,
  "\u2581dagoen": 426,
  "\u2581jarri": 427,
  "Por": 428,
  "\u2581Nire": 429,
  "\u2581modo": 430,
  "\u2581cosa": 431,
  "\u2581nuevo": 432,
  "\u2581gainean": 433,
  "\u2581bidez": 434,
  "\u2581ikusten": 435,
  "\u2581dituen": 436,
  "\u2581gizon": 437,
  "\u2581Hori": 438,
  "E": 439,
  "\u2581Para": 440,
  "\u2581azken": 441,
  "\u2581s\u00e9": 442,
  "\u2581medio": 443,
  "\u2581arabera": 444,
  "\u2581Dios": 445,
  "\u2581teclado": 446,
  "etik": 447,
  "\u2581va": 448,
  "\u2581noche": 449,
  "\u2581hil": 450,
  "\u2581durante": 451,
  "\u00eda": 452,
  "\u2581daude": 453,
  "\u2581Te": 454,
  "ca": 455,
  "\u2581zerbait": 456,
  "\u2581buruzko": 457,
  "\u2581ba": 458,
  "dos": 459,
  "das": 460,
  "B": 461,
  "\u2581esaten": 462,
  "sa": 463,
  "\u2581caso": 464,
  "mapa": 465,
  "g": 466,
  "\u2581gaur": 467,
  "O": 468,
  "\u2581hauek": 469,
  "\u2581zein": 470,
  "P": 471,
  "etara": 472,
  "\u258118": 473,
  "mo": 474,
  "\u2581izatea": 475,
  "\u2581sartu": 476,
  "\u2581unos": 477,
  "\u25812011": 478,
  "ban": 479,
  "\u2581hartzen": 480,
  "\u2581aukera": 481,
  "\u2581Mapa": 482,
  "\u2581&": 483,
  "\u2581besterik": 484,
  "\u2581sistema": 485,
  "\u2581manera": 486,
  "I": 487,
  "\u25814": 488,
  "\u2581Bi": 489,
  "in": 490,
  "so": 491,
  "\u2581euskal": 492,
  "\u2581cuenta": 493,
  "\u2581all\u00ed": 494,
  "_": 495,
  "ar": 496,
  "\u2581verdad": 497,
  "\u2581burua": 498,
  "\u2581buruz": 499,
  "\u2581jakin": 500,
  "du": 501,
  "\u2581Bere": 502,
  "\u2581ondo": 503,
  "di": 504,
  "\u2581dizut": 505,
  "b": 506,
  "\u2581entonces": 507,
  "\u2581tener": 508,
  "\u2581non": 509,
  "\u2581Una": 510,
  "\u2581d\u00edas": 511,
  "\u2581otras": 512,
  "\u2581mis": 513,
  "\u2581nosotros": 514,
  "\u2581Cuando": 515,
  "\u2581As\u00ed": 516,
  "\u2581ciudad": 517,
  "\u2581mayor": 518,
  "\u25815": 519,
  "\u2581veces": 520,
  "\u2581berak": 521,
  "\u2581gisa": 522,
  "\u2581ello": 523,
  "pe": 524,
  "\u2581handia": 525,
  "\u2581fuera": 526,
  "\u2581etorri": 527,
  "\u2581baizik": 528,
  "ce": 529,
  "les": 530,
  "\u258110": 531,
  "\u2581zuela": 532,
  "\u2581Ezin": 533,
  "\u2581aurrera": 534,
  "ten": 535,
  "\u2581nombre": 536,
  "\u2581cual": 537,
  "\u2581estado": 538,
  "bi": 539,
  "\u2581zu": 540,
  "\u2581...": 541,
  "\u2581aurrean": 542,
  "tze": 543,
  "\u2581berriro": 544,
  "\u2581pueden": 545,
  "\u2581duela": 546,
  "as": 547,
  "que": 548,
  "\u2581Ni": 549,
  "koa": 550,
  "\u2581berean": 551,
  "\u2581hainbat": 552,
  "\u2581jo": 553,
  "pa": 554,
  "\u258115": 555,
  "\u2581DE": 556,
  "\u2581guztia": 557,
  "\u2581Esta": 558,
  "\u2581zitzaion": 559,
  "\u2581tipo": 560,
  "\u2581behin": 561,
  "\u2581t\u00fa": 562,
  "\u2581mano": 563,
  "\u2581solo": 564,
  "\u2581zituzten": 565,
  "\u2581Donostia": 566,
  "\u2581nuestro": 567,
  "L": 568,
  "nos": 569,
  "\u2581-\u00a1": 570,
  "\u2581estos": 571,
  "\u2581orduan": 572,
  "T": 573,
  "\u2581arteko": 574,
  "K": 575,
  "\u2581ezta": 576,
  "\u2581Ya": 577,
  "\u2581estar": 578,
  "\u2581nunca": 579,
  "\u2581mujer": 580,
  "\u2581ote": 581,
  "\u2581nuestra": 582,
  "\u2581izaten": 583,
  "\u2581tienen": 584,
  "\u2581Este": 585,
  "\u2581Zure": 586,
  "ena": 587,
  "\u2581horrela": 588,
  "\u2581ser\u00e1": 589,
  "\u2581primera": 590,
  "\u2581quien": 591,
  "tza": 592,
  "\u2581ojos": 593,
  "\u2581atera": 594,
  "txo": 595,
  "\u2581ir": 596,
  "\u2581zaude": 597,
  "(": 598,
  "gatik": 599,
  "\u2581aunque": 600,
  "\u2581poder": 601,
  "is": 602,
  "\u2581honek": 603,
  "\u2581haber": 604,
  "\u2581Mi": 605,
  "\u2581ti": 606,
  "\u2581punto": 607,
  "\u2581lado": 608,
  "p": 609,
  "\u2581zidan": 610,
  "\u2581c\u00f3mo": 611,
  "\u2581hoy": 612,
  "\u2581tengo": 613,
  "\u2581historia": 614,
  "\u2581daiteke": 615,
  "\u2581izena": 616,
  "\u2581izateko": 617,
  "\u2581cualquier": 618,
  "\u2581nago": 619,
  "\u2581Navarra": 620,
  "\u2581bajo": 621,
  "\u2581familia": 622,
  "\u2581pasa": 623,
  "ciones": 624,
  "\u2581obra": 625,
  "\u2581Hau": 626,
  "\u2581beraz": 627,
  "za": 628,
  "\u2581gente": 629,
  "\u2581inoiz": 630,
  "\u258120": 631,
  "\u2581raz\u00f3n": 632,
  "\u2581ona": 633,
  "\u2581aquel": 634,
  "\u2581posible": 635,
  "G": 636,
  "\u2581dituzten": 637,
  "C\u00f3mo": 638,
  "\u2581estoy": 639,
  "\u2581cabeza": 640,
  "os": 641,
  "\u2581puedo": 642,
  "\u2581estas": 643,
  "Es": 644,
  "\u2581oraindik": 645,
  "\u2581nion": 646,
  "x": 647,
  "tzera": 648,
  "\u2581ongi": 649,
  "\u2581debe": 650,
  "be": 651,
  "\u2581alguna": 652,
  "\u2581Era": 653,
  "\u2581gertatzen": 654,
  "com": 655,
  "\u2581direla": 656,
  "D": 657,
  "\u2581mal": 658,
  "\u2581pueblo": 659,
  "\u2581luego": 660,
  "ne": 661,
  "\u2581Est\u00e1": 662,
  "los": 663,
  "\u2581egitea": 664,
  "ok": 665,
  "\u2581favor": 666,
  "F": 667,
  "\u2581ma\u00f1ana": 668,
  "Bai": 669,
  "\u2581G": 670,
  "er": 671,
  "\u2581hablar": 672,
  "\u2581zuzen": 673,
  "\u2581mientras": 674,
  "\u2581parece": 675,
  "al": 676,
  "\u2581programa": 677,
  "\u2581padre": 678,
  "M": 679,
  "\u2581informaci\u00f3n": 680,
  "\u2581agua": 681,
  "\u2581handi": 682,
  "\u2581haien": 683,
  "ia": 684,
  "\u2581hartan": 685,
  "\u2581emango": 686,
  "\u2581general": 687,
  "\u2581bitartean": 688,
  "\u2581esku": 689,
  "ci": 690,
  "\u2581aurkitu": 691,
  "\u2581ditut": 692,
  "\u25816": 693,
  "nte": 694,
  "\u2581honen": 695,
  "\u2581gain": 696,
  "\u00e1n": 697,
  "tasuna": 698,
  "\u2581cuanto": 699,
  "\u2581hab\u00edan": 700,
  "\u2581primer": 701,
  "\u2581puerta": 702,
  "\u2581inguruan": 703,
  "tasun": 704,
  "\u2581gertatu": 705,
  "\u2581Nik": 706,
  "\u25812010": 707,
  "\u2581persona": 708,
  "\u2581Ba": 709,
  "\u2581denbora": 710,
  "\u2581gai": 711,
  "\u2581gainera": 712,
  "\u2581nahiz": 713,
  "\u2581Orain": 714,
  "\u2581idea": 715,
  "\u2581tarde": 716,
  "\u2581ante": 717,
  "\u2581dauden": 718,
  "\u2581egindako": 719,
  "\u2581eran": 720,
  "\u2581hitzak": 721,
  "\u2581esker": 722,
  "\u2581grupo": 723,
  "\u258112": 724,
  "\u2581eraman": 725,
  "3": 726,
  "el": 727,
  "\u2581argi": 728,
  "\u258117": 729,
  "\u2581embargo": 730,
  "\u2581dicho": 731,
  "\u2581trav\u00e9s": 732,
  "\u2581Juan": 733,
  "\u2581jaso": 734,
  "\u2581color": 735,
  "\u2581begira": 736,
  "\u2581P": 737,
  "\u2581sortu": 738,
  "\u2581Beste": 739,
  "li": 740,
  "\u2581bezain": 741,
  "\u2581ditugu": 742,
  "\u2581n\u00famero": 743,
  "\u2581ordea": 744,
  "\u2581Re": 745,
  "2": 746,
  "ria": 747,
  "\u2581Eusko": 748,
  "\u2581falta": 749,
  "\u2581Kultura": 750,
  "\u2581entzun": 751,
  "\u2581madre": 752,
  "\u258130": 753,
  "\u2581dakit": 754,
  "\u2581dice": 755,
  "\u2581hizo": 756,
  "\u2581a\u00fan": 757,
  "\u2581bakarra": 758,
  "\u2581ia": 759,
  "\u2581acuerdo": 760,
  "\u2581/": 761,
  "\u2581egoera": 762,
  "\u2581soy": 763,
  "\u2581hor": 764,
  "\u2581aurretik": 765,
  "\u2581horas": 766,
  "\u2581Ha": 767,
  "\u2581dentro": 768,
  "\u2581F": 769,
  "\u2581erabiltzen": 770,
  "U": 771,
  "\u2581quiero": 772,
  "\u2581casi": 773,
  "\u2581nadie": 774,
  "\u2581duena": 775,
  "\u2581dem\u00e1s": 776,
  "\u2581aquella": 777,
  "\u2581batekin": 778,
  "\u2581neure": 779,
  "\u2581Zergatik": 780,
  "\u2581Ayuntamiento": 781,
  "\u2581baldin": 782,
  "\u258116": 783,
  "si": 784,
  "\u2581pertsona": 785,
  "r\u00e1": 786,
  "\u2581egongo": 787,
  "\u2581palabras": 788,
  "\u2581ohi": 789,
  "\u2581Sin": 790,
  "\u2581on": 791,
  "\u2581tekla": 792,
  "\u2581cuerpo": 793,
  "\u2581zenbait": 794,
  "\u2581oro": 795,
  "po": 796,
  "\u2581ama": 797,
  "\u2581dinero": 798,
  "\u2581Oso": 799,
  "\u2581pod\u00eda": 800,
  "\u2581ezagutzen": 801,
  "\u2581lau": 802,
  "\u2581gutxi": 803,
  "\u2581bati": 804,
  "\u2581bete": 805,
  "\u2581Gure": 806,
  "\u2581diot": 807,
  "\u2581lagun": 808,
  "je": 809,
  "\u2581mujeres": 810,
  "\u2581edozein": 811,
  "\u2581He": 812,
  "La": 813,
  "\u2581herri": 814,
  "\u2581dar": 815,
  "\u2581egia": 816,
  "\u2581bide": 817,
  "ja": 818,
  "las": 819,
  "\u2581saber": 820,
  "\u2581zehar": 821,
  "\u2581quiere": 822,
  "\u25817": 823,
  "\u2581D": 824,
  "\u2581Hemen": 825,
  "\u2581pasado": 826,
  "\u2581seg\u00fan": 827,
  "\u2581lortu": 828,
  "\u2581Santa": 829,
  "\u2581adem\u00e1s": 830,
  "\u2581algunos": 831,
  "\u2581hora": 832,
  "\u258119": 833,
  "\u2581berria": 834,
  "De": 835,
  "\u2581zeuden": 836,
  "\u2581i": 837,
  "\u2581Bilbao": 838,
  "\u2581genuen": 839,
  "Z": 840,
  "\u2581junto": 841,
  "\u2581ala": 842,
  "\u2581cuatro": 843,
  "\u2581balio": 844,
  "\u2581haiek": 845,
  "\u25818": 846,
  "\u2581halako": 847,
  "\u2581Gobierno": 848,
  "\u2581manos": 849,
  "\u2581emakume": 850,
  "\u2581une": 851,
  "\u2581Hala": 852,
  "\u2581txiki": 853,
  "\u2581zuk": 854,
  "\u2581aldiz": 855,
  "\u2581gora": 856,
  "\u2581heldu": 857,
  "vi": 858,
  "R": 859,
  "entzat": 860,
  "\u2581ur": 861,
  "Zer": 862,
  "\u2581hubiera": 863,
  "\u2581alg\u00fan": 864,
  "\u2581Sebasti\u00e1n": 865,
  "\u2581zaio": 866,
  "\u2581kontra": 867,
  "\u2581iritsi": 868,
  "\u2581erabili": 869,
  "\u2581Sun": 870,
  "\u2581modu": 871,
  "ago": 872,
  "\u2581uso": 873,
  "\u2581Ahora": 874,
  "\u2581tras": 875,
  "\u2581ejemplo": 876,
  "\u2581Eso": 877,
  "\u258125": 878,
  "\u2581bizitza": 879,
  "cu": 880,
  "\u2581servicio": 881,
  "rak": 882,
  "h": 883,
  "\u2581ah\u00ed": 884,
  "\u2581libre": 885,
  "gi": 886,
  "\u2581hijo": 887,
  "r\u00eda": 888,
  "\u2581itzuli": 889,
  "\u258114": 890,
  "keta": 891,
  "\u2581geratu": 892,
  "etarako": 893,
  "\u2581Bueno": 894,
  "\u2581Gipuzkoa": 895,
  "N": 896,
  "\u2581Como": 897,
  "\u2581U": 898,
  "\u2581arren": 899,
  "bo": 900,
  "\u2581visto": 901,
  "\u2581nueva": 902,
  "S\u00ed": 903,
  "\u2581T": 904,
  "\u2581zait": 905,
  "\u2581creo": 906,
  "El": 907,
  "\u2581voz": 908,
  "\u2581beharra": 909,
  "\u2581ideia": 910,
  "\u2581osoa": 911,
  "H": 912,
  "\u2581unas": 913,
  "\u2581mar": 914,
  "\u2581muchos": 915,
  "\u2581naturaleza": 916,
  "pi": 917,
  "\u2581amor": 918,
  "\u2581bila": 919,
  "lu": 920,
  "\u2581begiratu": 921,
  "\u2581aire": 922,
  "\u2581Euskadi": 923,
  "\u2581moduan": 924,
  "\u2581voy": 925,
  "\u2581diru": 926,
  "rse": 927,
  "\u2581camino": 928,
  "\u2581llegar": 929,
  "\u2581euskera": 930,
  "\u2581Centro": 931,
  "\u2581est\u00e1s": 932,
  "Sun": 933,
  "\u2581erre": 934,
  "\u2581muerte": 935,
  "\u2581batetik": 936,
  "\u2581partir": 937,
  "ste": 938,
  "por": 939,
  "\u2581Beraz": 940,
  "\u2581ellas": 941,
  "\u2581Euro": 942,
  "\u2581buena": 943,
  "\u2581grandes": 944,
  "gu": 945,
  "\u2581ninguna": 946,
  "\u2581tenemos": 947,
  "\u2581diferentes": 948,
  "\u2581propio": 949,
  "\u2581zuri": 950,
  "\u2581has": 951,
  "\u2581Hay": 952,
  "\u2581leku": 953,
  "\u2581siguiente": 954,
  "\u2581buen": 955,
  "\u2581eskatu": 956,
  "\u2581Nola": 957,
  "\u2581zioten": 958,
  "man": 959,
  "idad": 960,
  "\u2581vi": 961,
  "\u2581alguien": 962,
  "\u2581di": 963,
  "\u2581cierto": 964,
  "\u2581etxe": 965,
  "\u2581Entonces": 966,
  "\u2581Orduan": 967,
  "\u2581aldi": 968,
  "\u258111": 969,
  "\u2581carta": 970,
  "\u2581emateko": 971,
  "\u2581Izan": 972,
  "\u2581hark": 973,
  "\u2581actividades": 974,
  "\u2581laguntza": 975,
  "riko": 976,
  "\u2581har": 977,
  "\u2581piedra": 978,
  "\u2581muchas": 979,
  "\u2581hemos": 980,
  "\u2581erabaki": 981,
  "\u2581podr\u00eda": 982,
  "\u2581Bizkaia": 983,
  "\u2581nuestros": 984,
  "\u2581baduzu": 985,
  "\u2581frente": 986,
  "\u2581behera": 987,
  "\u2581In": 988,
  "\u2581ibili": 989,
  "\u2581Gracias": 990,
  "\u2581zeren": 991,
  "tua": 992,
  "\u2581erdi": 993,
  "Me": 994,
  "\u2581Zu": 995,
  "\u2581lana": 996,
  "\u2581sortzen": 997,
  "\u2581demasiado": 998,
  "\u2581amigo": 999,
  "\u2581maite": 1000,
  "\u2581T\u00e9rminos": 1001,
  "\u2581ondoan": 1002,
  "\u2581talde": 1003,
  "\u2581trata": 1004,
  "\u2581proyecto": 1005,
  "ge": 1006,
  "\u2581barruan": 1007,
  "sen": 1008,
  "\u25812009": 1009,
  "\u2581esos": 1010,
  "ve": 1011,
  "\u2581\u00faltimo": 1012,
  "\u2581se\u00f1ora": 1013,
  "qui": 1014,
  "\u258113": 1015,
  "\u2581pentsatu": 1016,
  "\u2581sentido": 1017,
  "\u2581todav\u00eda": 1018,
  "\u2581iba": 1019,
  "\u2581Esan": 1020,
  "ur": 1021,
  "res": 1022,
  "\u2581ning\u00fan": 1023,
  "qu\u00e9": 1024,
  "\u2581Adem\u00e1s": 1025,
  "\u2581p\u00fablico": 1026,
  "\u2581servicios": 1027,
  "fa": 1028,
  "\u2581tienes": 1029,
  "dor": 1030,
  "\u2581horien": 1031,
  "\u2581aita": 1032,
  "\u2581Azken": 1033,
  "\u2581ayuda": 1034,
  "\u2581M": 1035,
  "\u2581ve": 1036,
  "mi": 1037,
  "\u2581largo": 1038,
  "\u2581duk": 1039,
  "\u2581omen": 1040,
  "\u2581nuke": 1041,
  "\u2581igual": 1042,
  "\u2581joven": 1043,
  "\u2581web": 1044,
  "\u2581ezazu": 1045,
  "\u2581neska": 1046,
  "\u2581valor": 1047,
  "\u2581tierra": 1048,
  "\u2581ni\u00f1os": 1049,
  "\u2581erantzun": 1050,
  "\u2581sabe": 1051,
  "Name": 1052,
  "fi": 1053,
  "\u2581pro": 1054,
  "pen": 1055,
  "\u2581cartas": 1056,
  "ver": 1057,
  "\u2581jartzen": 1058,
  "\u2581actividad": 1059,
  "\u2581cambio": 1060,
  "dun": 1061,
  "\u2581pronto": 1062,
  "\u2581Esto": 1063,
  "\u2581hartuko": 1064,
  "ni": 1065,
  "\u2581cara": 1066,
  "\u2581Ondo": 1067,
  "\u2581palabra": 1068,
  "rek": 1069,
  "\u2581rey": 1070,
  "\u2581ser\u00eda": 1071,
  "\u25819": 1072,
  "\u2581dituzu": 1073,
  "\u2581zenuen": 1074,
  "\u2581vasca": 1075,
  "\u2581Vamos": 1076,
  "\u2581Ongi": 1077,
  "\u2581N": 1078,
  "un": 1079,
  "\u2581dugun": 1080,
  "\u2581dudan": 1081,
  "\u2581calle": 1082,
  "\u2581auto": 1083,
  "\u2581causa": 1084,
  "\u2581II": 1085,
  "\u2581zeukan": 1086,
  "\u2581puesto": 1087,
  "\u2581realidad": 1088,
  "?\"": 1089,
  "org": 1090,
  "\u2581ley": 1091,
  "\u2581euren": 1092,
  "\u2581m": 1093,
  "\u2581pre": 1094,
  "net": 1095,
  "\u00ed": 1096,
  "\u2581zergatik": 1097,
  "ble": 1098,
  "\u2581gabeko": 1099,
  "\u2581L": 1100,
  "\u2581eduki": 1101,
  "\u2581vista": 1102,
  "\u2581Ur": 1103,
  "\u2581erakusten": 1104,
  "fe": 1105,
  "\u2581fondo": 1106,
  "\u2581erabat": 1107,
  "us": 1108,
  "\u2581buru": 1109,
  "\u2581Gero": 1110,
  "\u2581natural": 1111,
  "\u2581propia": 1112,
  "r\u00e9": 1113,
  "men": 1114,
  "hi": 1115,
  "w": 1116,
  "ku": 1117,
  "\u2581importante": 1118,
  "\u2581haya": 1119,
  "rio": 1120,
  "\u2581sentitzen": 1121,
  "\u2581os": 1122,
  "\u2581bota": 1123,
  "\u2581Porque": 1124,
  "zo": 1125,
  "\u2581Mar\u00eda": 1126,
  "\u2581ideas": 1127,
  "\u258121": 1128,
  "\u2581berriak": 1129,
  "\u2581guerra": 1130,
  "\u2581siento": 1131,
  "\u2581derecho": 1132,
  "\u2581Bat": 1133,
  "\u2581hac\u00eda": 1134,
  "\u2581esango": 1135,
  "\u2581duzue": 1136,
  "ado": 1137,
  "\u2581efecto": 1138,
  "\u2581desarrollo": 1139,
  "Te": 1140,
  "\u2581esas": 1141,
  "\u2581eskaintzen": 1142,
  "\u2581podemos": 1143,
  "\u2581aquellos": 1144,
  "\u2581galdu": 1145,
  "\u2581Ar": 1146,
  "\u2581badu": 1147,
  "\u2581datos": 1148,
  "\u2581musika": 1149,
  "\u2581aldatu": 1150,
  "\u2581orden": 1151,
  "\u2581algunas": 1152,
  "\u2581Que": 1153,
  "\u2581eres": 1154,
  "\u2581luz": 1155,
  "\u2581estaban": 1156,
  "\u00f1a": 1157,
  "\u2581pasar": 1158,
  "\u2581situaci\u00f3n": 1159,
  "tar": 1160,
  "\u2581baitan": 1161,
  "En": 1162,
  "jo": 1163,
  "\u2581garai": 1164,
  "con": 1165,
  "\u2581mundu": 1166,
  "emos": 1167,
  "\u2581Tom": 1168,
  "\u2581dit": 1169,
  "\u2581maila": 1170,
  "\u2581bigarren": 1171,
  "\u2581centro": 1172,
  "\u2581social": 1173,
  "\u2581nuevas": 1174,
  "\u2581co": 1175,
  "\u25812.": 1176,
  "\u2581jarraitu": 1177,
  "\u258124": 1178,
  "\u2581principal": 1179,
  "\u2581fueron": 1180,
  "\u2581Plan": 1181,
  "\u2581mediante": 1182,
  "@": 1183,
  "raino": 1184,
  "\u2581batzuetan": 1185,
  "\u2581Gaur": 1186,
  "\u2581sociedad": 1187,
  "\u2581fuerza": 1188,
  "zio": 1189,
  "\u2581edificio": 1190,
  "ista": 1191,
  "\u2581Etxea": 1192,
  "\u2581cerca": 1193,
  "\u2581karta": 1194,
  "!\"": 1195,
  "\u2581horri": 1196,
  "\u2581ikus": 1197,
  "\u2581guztien": 1198,
  "\u2581agertzen": 1199,
  "\u2581Di": 1200,
  "\u2581ekarri": 1201,
  "\u2581cinco": 1202,
  "\u2581duzun": 1203,
  "\u2581Bien": 1204,
  "ela": 1205,
  "\u2581ezagutu": 1206,
  "\u2581gazte": 1207,
  "v": 1208,
  "\u2581vamos": 1209,
  "\u2581conocimiento": 1210,
  "\u2581paso": 1211,
  "\u2581Desde": 1212,
  "\u2581S\u00f3lo": 1213,
  "ada": 1214,
  "erako": 1215,
  "sta": 1216,
  "\u2581daitezke": 1217,
  "\u2581amigos": 1218,
  "\u2581gu": 1219,
  "\u2581final": 1220,
  "\u2581Lan": 1221,
  "\u2581obras": 1222,
  "\u2581litzateke": 1223,
  "zu": 1224,
  "V": 1225,
  "\u2581aurkeztu": 1226,
  "\u2581haciendo": 1227,
  "\u2581zien": 1228,
  "\u2581Horrela": 1229,
  "tra": 1230,
  "\u2581ordu": 1231,
  "\u2581libro": 1232,
  "\u2581gizarte": 1233,
  "ru": 1234,
  "\u2581Tambi\u00e9n": 1235,
  "\u2581zirela": 1236,
  "\u2581benetan": 1237,
  "\u2581zain": 1238,
  "\u2581plaza": 1239,
  "\u2581eginez": 1240,
  "\u2581zati": 1241,
  "%": 1242,
  "\u2581bueno": 1243,
  "\u2581m\u00fasica": 1244,
  "\u2581hamar": 1245,
  "\u2581notas": 1246,
  "\u2581J": 1247,
  "\u2581conocer": 1248,
  "\u2581guztietan": 1249,
  "\u2581lehenengo": 1250,
  "\u2581eragin": 1251,
  "\u2581Ma": 1252,
  "\u2581dado": 1253,
  "30": 1254,
  "\u2581eskatzen": 1255,
  "\u2581ex": 1256,
  "\u2581incluso": 1257,
  "\u2581segundo": 1258,
  "\u25811.": 1259,
  "Lo": 1260,
  "che": 1261,
  "\u2581hacerlo": 1262,
  "\u2581balitz": 1263,
  "\u2581didazu": 1264,
  "va": 1265,
  "\u2581ginen": 1266,
  "\u2581dije": 1267,
  "\u2581gracias": 1268,
  "\u2581pa\u00eds": 1269,
  "\u2581habr\u00eda": 1270,
  "gan": 1271,
  "\u2581uzten": 1272,
  "\u2581duda": 1273,
  "\u2581coraz\u00f3n": 1274,
  "\u2581dagoela": 1275,
  "\u2581denean": 1276,
  "\u2581alma": 1277,
  "\u2581c": 1278,
  "\u2581plan": 1279,
  "ck": 1280,
  "\u2581bost": 1281,
  "\u2581hizkuntza": 1282,
  "\u2581siglo": 1283,
  "\u2581euskara": 1284,
  "\u2581d\u00f3nde": 1285,
  "\u2581Todo": 1286,
  "\u2581itxura": 1287,
  "\u2581seguro": 1288,
  "tsu": 1289,
  "\u2581j\u00f3venes": 1290,
  "\u2581Donostiako": 1291,
  "\u2581Home": 1292,
  "\u2581zona": 1293,
  "iz": 1294,
  "\u2581hiri": 1295,
  "\u2581bitartez": 1296,
  "\u2581relaci\u00f3n": 1297,
  "\u2581berehala": 1298,
  "\u2581per": 1299,
  "\u2581primero": 1300,
  "\u2581izen": 1301,
  "\u2581\u00faltima": 1302,
  "\u2581qui\u00e9n": 1303,
  "\u2581espero": 1304,
  "\u2581gauzak": 1305,
  "\u2581presente": 1306,
  "1": 1307,
  "\u2581espacio": 1308,
  "\u2581Mo": 1309,
  "\u2581quer\u00eda": 1310,
  "tor": 1311,
  "ke": 1312,
  "\u2581Bo": 1313,
  "\u2581semana": 1314,
  "\u2581deitu": 1315,
  "\u2581tenido": 1316,
  "\u2581vasco": 1317,
  "\u2581lege": 1318,
  "\u2581sol": 1319,
  "\u2581Estoy": 1320,
  "\u2581giza": 1321,
  "\u2581gelditu": 1322,
  "\u2581ireki": 1323,
  "\u2581jende": 1324,
  "\u2581objeto": 1325,
  "\u2581irudi": 1326,
  "\u2581plano": 1327,
  "\u2581sartzen": 1328,
  "\u2581principio": 1329,
  "\u2581cabo": 1330,
  "\u2581zaitut": 1331,
  "\u2581aurreko": 1332,
  "rra": 1333,
  "\u2581objetivo": 1334,
  "tuta": 1335,
  "\u2581puedes": 1336,
  "00": 1337,
  "ho": 1338,
  "il": 1339,
  "\u2581gusta": 1340,
  "\u2581aurre": 1341,
  "\u2581Europa": 1342,
  "\u2581direcci\u00f3n": 1343,
  "\u2581garbi": 1344,
  "\u25812008": 1345,
  "\u2581seme": 1346,
  "Qui\u00e9n": 1347,
  "\u2581soilik": 1348,
  "\u2581So": 1349,
  "\u2581Co": 1350,
  "\u2581bidali": 1351,
  "\u2581etxean": 1352,
  "\u2581X": 1353,
  ".\"": 1354,
  "\u2581dauka": 1355,
  "\u2581guztiz": 1356,
  "\u2581Mr": 1357,
  "ismo": 1358,
  "\u2581onartu": 1359,
  "\u2581iruditzen": 1360,
  "\u2581Na": 1361,
  "\u2581Li": 1362,
  "\u2581jotzen": 1363,
  "Se": 1364,
  "\u2581Estado": 1365,
  "\u2581\u00e9ste": 1366,
  "\u2581baitzen": 1367,
  "\u2581pueda": 1368,
  "\u2581zenean": 1369,
  "\u2581Pues": 1370,
  "\u2581Pi": 1371,
  "\u2581volver": 1372,
  "\u2581hartzeko": 1373,
  "\u2581proceso": 1374,
  "\u2581memoria": 1375,
  "cha": 1376,
  "\u2581Gizarte": 1377,
  "\u2581Udal": 1378,
  "\u2581joango": 1379,
  "\u2581serio": 1380,
  "\u2581inguruko": 1381,
  "son": 1382,
  "\u2581\u00fanico": 1383,
  "\u2581bastante": 1384,
  "\u2581tus": 1385,
  "\u2581meses": 1386,
  "\u2581Tengo": 1387,
  "\u2581suerte": 1388,
  "\u2581nituen": 1389,
  "\u2581pensar": 1390,
  "\u2581hari": 1391,
  "\u2581zaitez": 1392,
  "\u2581Hola": 1393,
  "\u2581salir": 1394,
  "\u2581begi": 1395,
  "\u2581par": 1396,
  "\u2581base": 1397,
  "\u2581mismos": 1398,
  "\u2581Dena": 1399,
  "\u2581idatzi": 1400,
  "ha": 1401,
  "Eta": 1402,
  "garri": 1403,
  "\u2581kontu": 1404,
  "\u2581Gainera": 1405,
  "agoa": 1406,
  "\u2581juego": 1407,
  "\u2581materia": 1408,
  "\u2581tema": 1409,
  "\u2581Maria": 1410,
  "\u2581ugari": 1411,
  "\u2581honako": 1412,
  "\u2581siendo": 1413,
  "su": 1414,
  "\u2581V": 1415,
  "\u2581mes": 1416,
  "\u2581des": 1417,
  "\u2581mota": 1418,
  "\u258122": 1419,
  "\u2581Kaixo": 1420,
  "\u2581mil": 1421,
  "\u2581peque\u00f1o": 1422,
  "\u2581hijos": 1423,
  "garria": 1424,
  "\u2581pentsatzen": 1425,
  "\u2581bateko": 1426,
  "\u2581etxera": 1427,
  "\u2581Hasiera": 1428,
  "\u2581atzera": 1429,
  "\u2581marcha": 1430,
  "\u2581aurkitzen": 1431,
  "\u2581estamos": 1432,
  "\u2581hona": 1433,
  "\u2581irudia": 1434,
  "\u2581%1": 1435,
  "\u2581etc": 1436,
  "\u2581izquierda": 1437,
  "koak": 1438,
  "\u2581necesario": 1439,
  "\u2581alegia": 1440,
  "\u2581parec\u00eda": 1441,
  "mu": 1442,
  "\u2581mila": 1443,
  "\u2581Mar": 1444,
  "\u2581derecha": 1445,
  "\u2581Vi": 1446,
  "\u2581luze": 1447,
  "\u2581prest": 1448,
  "\u2581conciencia": 1449,
  "\u2581bihurtu": 1450,
  "\u2581dutela": 1451,
  "\u2581miedo": 1452,
  "\u2581all\u00e1": 1453,
  "\u2581Creo": 1454,
  "\u2581encuentra": 1455,
  "\u2581zerrenda": 1456,
  "\u2581Despu\u00e9s": 1457,
  "\u2581tomar": 1458,
  "\u2581besteak": 1459,
  "\u2581quienes": 1460,
  "\u2581boca": 1461,
  "\u2581realizar": 1462,
  "sti": 1463,
  "\u2581agian": 1464,
  "\u2581m\u00edo": 1465,
  "\u2581inork": 1466,
  "\u2581aski": 1467,
  "ero": 1468,
  "ton": 1469,
  "\u2581Lehen": 1470,
  "\u2581seguir": 1471,
  "\u2581campo": 1472,
  "\u258126": 1473,
  "\u2581partes": 1474,
  "\u2581dantza": 1475,
  "\u2581imagen": 1476,
  "\u2581pie": 1477,
  "\u2581LA": 1478,
  "\u2581daukat": 1479,
  "\u00f3n": 1480,
  "\u2581ematea": 1481,
  "4": 1482,
  "vo": 1483,
  "\u2581H": 1484,
  "\u2581delako": 1485,
  "\u2581arriba": 1486,
  "\u2581quieres": 1487,
  "\u2581Ca": 1488,
  "ac": 1489,
  "\u2581sekula": 1490,
  "\u2581empresas": 1491,
  "\u2581zera": 1492,
  "\u2581guztiek": 1493,
  "\u2581voluntad": 1494,
  "\u2581nagusia": 1495,
  "ter": 1496,
  "\u2581Ama": 1497,
  "\u2581barne": 1498,
  "\u2581bakar": 1499,
  "\u2581informazioa": 1500,
  "\u2581\u00ab": 1501,
  "\u2581claro": 1502,
  "\u2581arrazoi": 1503,
  "\u2581nuestras": 1504,
  "\u2581iglesia": 1505,
  "\u2581ulertzen": 1506,
  "\u2581sab\u00eda": 1507,
  "\u2581Pa\u00eds": 1508,
  "5": 1509,
  "\u2581kolore": 1510,
  "\u258128": 1511,
  "\u2581osoan": 1512,
  "\u2581car\u00e1cter": 1513,
  "\u2581urtean": 1514,
  "t\u00f3": 1515,
  "\u2581aurka": 1516,
  "\u2581vivir": 1517,
  "entzako": 1518,
  "\u2581van": 1519,
  "\u2581interior": 1520,
  "\u258127": 1521,
  "\u2581galdetu": 1522,
  "\u2581gainerako": 1523,
  "\u2581esp\u00edritu": 1524,
  "\u2581helburu": 1525,
  "\u2581zegoela": 1526,
  "ya": 1527,
  "\u2581Herria": 1528,
  "\u2581horregatik": 1529,
  "\u2581hacen": 1530,
  "\u2581respecto": 1531,
  "\u2581movimiento": 1532,
  "\u2581hi": 1533,
  "\u2581niri": 1534,
  "\u2581deitzen": 1535,
  "\u2581especial": 1536,
  "\u2581clase": 1537,
  "\u2581nagusi": 1538,
  "\u2581varios": 1539,
  "\u2581azaldu": 1540,
  "\u2581suelo": 1541,
  "\u2581osatzen": 1542,
  "dia": 1543,
  "\u2581pixka": 1544,
  "bil": 1545,
  "\u2581aldatzen": 1546,
  "tas": 1547,
  "\u2581mesa": 1548,
  "\u2581diozu": 1549,
  "\u2581elementos": 1550,
  "\u2581problema": 1551,
  "\u2581Todos": 1552,
  "\u2581material": 1553,
  "\u2581Tira": 1554,
  "tekla": 1555,
  "\u2581udal": 1556,
  "\u2581eraikuntza": 1557,
  "\u2581grande": 1558,
  "rri": 1559,
  "\u2581laster": 1560,
  "\u2581diote": 1561,
  "\u2581volvi\u00f3": 1562,
  "\u2581Ver": 1563,
  "\u2581lehenago": 1564,
  "\u2581Joan": 1565,
  "\u2581nota": 1566,
  "\u2581siguientes": 1567,
  "\u258123": 1568,
  "\u2581jaunak": 1569,
  "\u2581denak": 1570,
  "\u2581huts": 1571,
  "\u2581atenci\u00f3n": 1572,
  "\u2581Tu": 1573,
  "\u2581encima": 1574,
  "\u2581Pro": 1575,
  "D\u00f3nde": 1576,
  "\u2581u": 1577,
  "\u2581ederra": 1578,
  "\u2581kontuan": 1579,
  "\u2581lanean": 1580,
  "\u2581Fecha": 1581,
  "\u2581Pedro": 1582,
  "\u2581nivel": 1583,
  "\u2581bildu": 1584,
  "\u2581handiagoa": 1585,
  "\u2581d": 1586,
  "\u2581encontrar": 1587,
  "\u2581siquiera": 1588,
  "\u2581carga": 1589,
  "\u2581inor": 1590,
  "zi": 1591,
  "\u2581bezalako": 1592,
  "\u2581conmigo": 1593,
  "gar": 1594,
  "\u2581archivo": 1595,
  "\u2581kasu": 1596,
  "\u2581dirua": 1597,
  "\u2581sabes": 1598,
  "nes": 1599,
  "\u2581agindu": 1600,
  "car": 1601,
  "\u2581inter\u00e9s": 1602,
  "\u2581cuya": 1603,
  "\u2581edota": 1604,
  "\u2581l\u00ednea": 1605,
  "\u2581Non": 1606,
  "\u2581aldetik": 1607,
  "\u2581curso": 1608,
  "\u2581leyes": 1609,
  "\u2581agertu": 1610,
  "\u2581atsegin": 1611,
  "\u2581Kb": 1612,
  "\u2581aldera": 1613,
  "ndi": 1614,
  "\u2581Sa": 1615,
  "\u2581liburu": 1616,
  "\u2581elkar": 1617,
  "\u2581(19": 1618,
  "\u2581b": 1619,
  "\u2581diez": 1620,
  "\u2581f": 1621,
  "\u2581necesidad": 1622,
  "ina": 1623,
  "\u2581jarduera": 1624,
  "\u2581nahiko": 1625,
  "lan": 1626,
  "\u2581letra": 1627,
  "\u2581red": 1628,
  "\u2581izanik": 1629,
  "\u2581superior": 1630,
  "\u2581gr\u00e1fico": 1631,
  "\u2581habitaci\u00f3n": 1632,
  "keria": 1633,
  "\u2581kolorea": 1634,
  "\u2581Aralar": 1635,
  "\u2581erakutsi": 1636,
  "ber": 1637,
  "\u2581ondorioz": 1638,
  "\u2581Pa": 1639,
  "\u25812007": 1640,
  "\u2581so": 1641,
  "\u2581Gu": 1642,
  "\u2581Uste": 1643,
  "\u2581fiesta": 1644,
  "\u2581Barkatu": 1645,
  "\u2581acerca": 1646,
  "Pero": 1647,
  "\u2581antolatu": 1648,
  "tzaile": 1649,
  "\u2581euros": 1650,
  "\u2581Son": 1651,
  "\u2581horrelako": 1652,
  "\u2581zitzaidan": 1653,
  "\u2581sola": 1654,
  "\u2581formaci\u00f3n": 1655,
  "\u2581resto": 1656,
  "ezko": 1657,
  "\u2581begiak": 1658,
  "txa": 1659,
  "\u2581irten": 1660,
  "\u2581pol\u00edtica": 1661,
  "\u2581Nos": 1662,
  "\u2581Be": 1663,
  "\u2581Ella": 1664,
  "\u2581ezik": 1665,
  "\u2581contrario": 1666,
  "\u2581noski": 1667,
  "\u2581alto": 1668,
  "\u2581estilo": 1669,
  "\u2581an": 1670,
  "ino": 1671,
  "\u2581Egia": 1672,
  "\u2581batere": 1673,
  "\u2581Da": 1674,
  "\u2581gau": 1675,
  "\u2581mont\u00f3n": 1676,
  "\u2581batzuek": 1677,
  "ch": 1678,
  "\u2581total": 1679,
  "\u2581\u00c9l": 1680,
  "19": 1681,
  "\u2581hermano": 1682,
  "\u2581M\u00e1s": 1683,
  "\u2581lejos": 1684,
  "\u2581Egun": 1685,
  "\u2581urteko": 1686,
  "den": 1687,
  "\u2581tuvo": 1688,
  "\u2581grupos": 1689,
  "\u2581actual": 1690,
  "\u2581especie": 1691,
  "des": 1692,
  "\u2581Erakutsi": 1693,
  "\u2581adierazten": 1694,
  "\u25813.": 1695,
  "\u2581dec\u00eda": 1696,
  "\u2581vascos": 1697,
  "\u2581azpian": 1698,
  "\u2581zaizu": 1699,
  "\u2581ekintza": 1700,
  "\u2581Or": 1701,
  "\u2581dejar": 1702,
  "\u2581ateratzen": 1703,
  "\u2581ca": 1704,
  "\u2581libertad": 1705,
  "\u2581s": 1706,
  "\u2581ma": 1707,
  "\u2581Jos\u00e9": 1708,
  "\u2581tampoco": 1709,
  "\u2581coche": 1710,
  "\u2581zerbitzu": 1711,
  "\u2581fe": 1712,
  "\u2581Des": 1713,
  "\u2581baja": 1714,
  "\u2581Vasca": 1715,
  "\u2581badira": 1716,
  "\u2581buruari": 1717,
  "\u2581papel": 1718,
  "\u2581Zuk": 1719,
  "enak": 1720,
  "\u2581Museo": 1721,
  "\u2581calidad": 1722,
  "\u2581ni\u00f1o": 1723,
  "\u2581entrar": 1724,
  "\u2581baitzuen": 1725,
  "\u2581ikusiko": 1726,
  "\u2581Aqu\u00ed": 1727,
  "EN": 1728,
  "\u2581ven": 1729,
  "\u2581kendu": 1730,
  "\u2581ze": 1731,
  "\u2581madera": 1732,
  "\u2581Historia": 1733,
  "\u2581inolako": 1734,
  "\u2581gutxiago": 1735,
  "\u2581horixe": 1736,
  "\u2581minutos": 1737,
  "\u2581fuerte": 1738,
  "\u2581condiciones": 1739,
  "\u2581mostrar": 1740,
  "\u2581Ra": 1741,
  "\u2581toki": 1742,
  "\u2581experiencia": 1743,
  "\u2581gela": 1744,
  "\u2581ventana": 1745,
  "\u2581Estatu": 1746,
  "\u2581ihes": 1747,
  "\u2581viejo": 1748,
  "\u2581gaizki": 1749,
  "\u2581Han": 1750,
  "\u2581ikusteko": 1751,
  "\u2581Europako": 1752,
  "\u2581muestra": 1753,
  "\u2581segunda": 1754,
  "\u2581baitu": 1755,
  "\u00e1ndose": 1756,
  "dura": 1757,
  "\u2581importa": 1758,
  "\u2581trabajar": 1759,
  "tz": 1760,
  "rro": 1761,
  "\u2581enpresa": 1762,
  "\u00edan": 1763,
  "\u258131": 1764,
  "\u2581Aita": 1765,
  "ntes": 1766,
  "tutako": 1767,
  "\u2581hurrengo": 1768,
  "\u2581kultura": 1769,
  "tos": 1770,
  "\u2581bakoitzak": 1771,
  "\u2581Arte": 1772,
  "\u2581vas": 1773,
  "\u2581frecuencia": 1774,
  "\u2581Goazen": 1775,
  "\u2581dagokionez": 1776,
  "fo": 1777,
  "6": 1778,
  "San": 1779,
  "gen": 1780,
  "ir": 1781,
  "\u258129": 1782,
  "\u2581nuevos": 1783,
  "\u2581edad": 1784,
  "\u2581Ro": 1785,
  "+": 1786,
  "\u2581\u00e9sta": 1787,
  "\u2581pila": 1788,
  "\u2581seis": 1789,
  "tea": 1790,
  "\u2581lur": 1791,
  "\u2581izaera": 1792,
  "\u2581Miguel": 1793,
  "\u2581acci\u00f3n": 1794,
  "\u2581bater\u00eda": 1795,
  "bide": 1796,
  "\u2581adibidez": 1797,
  "\u2581dis": 1798,
  "per": 1799,
  "\u2581bidea": 1800,
  "\u2581erakunde": 1801,
  "\u2581Hiru": 1802,
  "\u2581digo": 1803,
  "r\u00e1n": 1804,
  "\u2581joaten": 1805,
  "):": 1806,
  "\u2581dif\u00edcil": 1807,
  "\u2581Foru": 1808,
  "tara": 1809,
  "\u2581vino": 1810,
  "\u2581personal": 1811,
  "\u2581queda": 1812,
  "\u2581cuales": 1813,
  "rre": 1814,
  "\u2581Nor": 1815,
  "\u2581bakoitzean": 1816,
  "\u2581abajo": 1817,
  "rez": 1818,
  "gue": 1819,
  "\u2581podr\u00e1": 1820,
  "\u2581aquellas": 1821,
  "\u2581cultura": 1822,
  "\u2581Go": 1823,
  "\u2581Entre": 1824,
  "\u2581Iglesia": 1825,
  "\u2581presencia": 1826,
  "\u2581Horregatik": 1827,
  "\u2581pa": 1828,
  "\u2581euro": 1829,
  "\u2581pesar": 1830,
  "tegi": 1831,
  "\u2581blanco": 1832,
  "\u2581pudo": 1833,
  "\u2581Fue": 1834,
  "\u2581plazo": 1835,
  "\u2581nau": 1836,
  "\u2581Herriko": 1837,
  "\u2581behintzat": 1838,
  "\u2581lengua": 1839,
  "\u2581beldur": 1840,
  "\u2581lanak": 1841,
  "bu": 1842,
  "\u2581gaude": 1843,
  "\u2581geratzen": 1844,
  "ida": 1845,
  "ul": 1846,
  "\u2581dezagun": 1847,
  "tes": 1848,
  "\u2581ezarri": 1849,
  "\u2581municipal": 1850,
  "\u2581media": 1851,
  "\u2581ordez": 1852,
  "\u2581g": 1853,
  "\u2581peque\u00f1a": 1854,
  "\u2581empresa": 1855,
  "\u2581zaie": 1856,
  "\u2581t": 1857,
  "\u2581saiatu": 1858,
  "\u2581zenbat": 1859,
  "\u2581atzetik": 1860,
  "\u2581horrekin": 1861,
  "\u2581Quiero": 1862,
  "\u2581neurri": 1863,
  "\u2581tendr\u00e1": 1864,
  "\u2581nor": 1865,
  "\u2581Begira": 1866,
  "\u2581noviembre": 1867,
  "\u2581diciembre": 1868,
  "\u2581gizona": 1869,
  "\u258150": 1870,
  "\u2581li": 1871,
  "\u2581puso": 1872,
  "\u2581puntu": 1873,
  "\u2581vio": 1874,
  "\u2581alderdi": 1875,
  "\u2581betetzen": 1876,
  "\u2581ikasi": 1877,
  "\u2581elkarrekin": 1878,
  "\u2581entrada": 1879,
  "\u2581hots": 1880,
  "\u2581cama": 1881,
  "\u2581pe": 1882,
  "or": 1883,
  "\u2581Argentina": 1884,
  "rantz": 1885,
  "\u2581polic\u00eda": 1886,
  "\u2581\u00e9poca": 1887,
  "\u2581ohar": 1888,
  "\u2581handik": 1889,
  "\u2581pies": 1890,
  "\u2581com\u00fan": 1891,
  "egi": 1892,
  "ing": 1893,
  "\u2581aldeko": 1894,
  "7": 1895,
  "\u2581dizu": 1896,
  "\u2581futuro": 1897,
  "\u2581arazo": 1898,
  "\u2581gainetik": 1899,
  "\u2581hasiko": 1900,
  "\u2581informazio": 1901,
  "\u2581sitio": 1902,
  "ando": 1903,
  "\u2581sala": 1904,
  "\u2581berdin": 1905,
  "aba": 1906,
  "\u2581seguridad": 1907,
  "lin": 1908,
  "\u2581Ko": 1909,
  "\u2581Mostrar": 1910,
  "\u2581harri": 1911,
  "\u2581\u00fanica": 1912,
  "\u2581Direcci\u00f3n": 1913,
  "\u2581atea": 1914,
  "\u2581etxeko": 1915,
  "\u2581muerto": 1916,
  "\u2581Egin": 1917,
  "\u2581diferencia": 1918,
  "th": 1919,
  "\u2581indar": 1920,
  "\u2581askoz": 1921,
  "\u2581medida": 1922,
  "ic": 1923,
  "miento": 1924,
  "\u2581delante": 1925,
  "KO": 1926,
  "\u2581k": 1927,
  "\u2581are": 1928,
  "\u2581Sr": 1929,
  "\u2581haur": 1930,
  "\u2581pregunta": 1931,
  "\u2581ofrece": 1932,
  "\u2581adierazi": 1933,
  "dan": 1934,
  "\u2581inguru": 1935,
  "\u2581Do": 1936,
  "\u2581Zein": 1937,
  "\u2581atzean": 1938,
  "\u2581benetako": 1939,
  "\u2581Po": 1940,
  "mar": 1941,
  "\u2581llama": 1942,
  "remos": 1943,
  "\u2581Soy": 1944,
  "\u2581ETA": 1945,
  "\u2581axola": 1946,
  "\u2581aritu": 1947,
  "\u2581hobeto": 1948,
  "\u2581sean": 1949,
  "\u2581investigaci\u00f3n": 1950,
  "\u2581horretarako": 1951,
  "\u2581miniaplicaci\u00f3n": 1952,
  "ran": 1953,
  "\u2581real": 1954,
  "cia": 1955,
  "\u2581Badakit": 1956,
  "\u2581aun": 1957,
  "\u2581Hor": 1958,
  "\u2581alrededor": 1959,
  "\u2581die": 1960,
  "batean": 1961,
  "ros": 1962,
  "\u2581alta": 1963,
  "\u2581zabaldu": 1964,
  "\u2581dudala": 1965,
  "\u2581hilabete": 1966,
  "\u2581aipatu": 1967,
  "\u2581Qu\u00e9": 1968,
  "Si": 1969,
  "\u2581handiak": 1970,
  "\u2581lagundu": 1971,
  "\u2581%.1": 1972,
  "\u2581solamente": 1973,
  "\u2581barre": 1974,
  "\u2581Giza": 1975,
  "\u2581Ta": 1976,
  "\u2581amaitu": 1977,
  "\u2581sangre": 1978,
  "aldi": 1979,
  "\u2581Hitz": 1980,
  "\u2581beharreko": 1981,
  "txe": 1982,
  "\u2581existe": 1983,
  "\u2581Luis": 1984,
  "\u2581gorputz": 1985,
  "\u2581egotea": 1986,
  "\u2581h": 1987,
  "tzi": 1988,
  "\u2581buruan": 1989,
  "\u2581estudio": 1990,
  "\u2581varias": 1991,
  "\u2581Etxean": 1992,
  "\u2581T\u00fa": 1993,
  "\u2581General": 1994,
  "\u2581erabilera": 1995,
  "\u2581zutela": 1996,
  "\u2581Eskerrik": 1997,
  "\u2581Mari": 1998,
  "io": 1999,
  "\u2581gesti\u00f3n": 2000,
  "\u2581Luego": 2001,
  "\u2581formas": 2002,
  "\u2581paz": 2003,
  "ster": 2004,
  "\u2581luke": 2005,
  "\u2581ziur": 2006,
  "\u2581acto": 2007,
  "\u2581mesedez": 2008,
  "\u2581Club": 2009,
  "\u2581cuarto": 2010,
  "\u2581badago": 2011,
  "\u2581hasten": 2012,
  "\u2581lleva": 2013,
  "\u2581etxea": 2014,
  "\u2581gobierno": 2015,
  "\u2581jarraitzen": 2016,
  "\u2581pas\u00f3": 2017,
  "\u2581viaje": 2018,
  "\u2581buscar": 2019,
  "\u2581aldaketa": 2020,
  "\u2581Ka": 2021,
  "\u2581itxi": 2022,
  "\u2581significa": 2023,
  "\u2581baterako": 2024,
  "\u2581batzuen": 2025,
  "RA": 2026,
  "min": 2027,
  "\u2581betiko": 2028,
  "\u2581berarekin": 2029,
  "\u2581ninduen": 2030,
  "\u2581llegado": 2031,
  "\u2581llevar": 2032,
  "\u2581octubre": 2033,
  "\u2581azkenean": 2034,
  "\u2581kanpo": 2035,
  "\u2581medios": 2036,
  "\u2581supuesto": 2037,
  "Le": 2038,
  "\u2581mayor\u00eda": 2039,
  "rentzat": 2040,
  "\u2581Ze": 2041,
  "\u2581opini\u00f3n": 2042,
  "\u2581dezakezu": 2043,
  "\u2581r\u00edo": 2044,
  "st": 2045,
  "\u2581figura": 2046,
  "\u2581hutsa": 2047,
  "\u2581libros": 2048,
  "\u2581jasotzen": 2049,
  "\u2581habr\u00e1": 2050,
  "\u2581Erabili": 2051,
  "\u2581guzti": 2052,
  "\u2581Oh": 2053,
  "\u2581ate": 2054,
  "\u2581berezia": 2055,
  "\u2581Vitoria": 2056,
  "\u2581realmente": 2057,
  "\u2581egunean": 2058,
  "\u2581pena": 2059,
  "ven": 2060,
  "\u2581pobre": 2061,
  "pro": 2062,
  "\u2581anterior": 2063,
  "ju": 2064,
  "nia": 2065,
  "15": 2066,
  "\u2581cielo": 2067,
  "\u2581padres": 2068,
  "\u2581sa": 2069,
  "\u2581ageri": 2070,
  "\u2581igo": 2071,
  "\u2581vuelta": 2072,
  "bra": 2073,
  "\u2581Jo": 2074,
  "\u2581asunto": 2075,
  "\u2581Nunca": 2076,
  "\u2581lasai": 2077,
  "\u2581lista": 2078,
  "\u2581problemas": 2079,
  "\u2581beraren": 2080,
  "\u2581mirada": 2081,
  "\u2581zahar": 2082,
  "ie": 2083,
  "tre": 2084,
  "\u2581ekin": 2085,
  "\u25812006": 2086,
  "\u2581proyectos": 2087,
  "\u2581Universidad": 2088,
  "\u2581menor": 2089,
  "\u2581poner": 2090,
  "xi": 2091,
  "\u2581\u00faltimos": 2092,
  "\u2581andrea": 2093,
  "\u2581Martin": 2094,
  "\u2581Ermua": 2095,
  "\u2581mahai": 2096,
  "\u2581Gizon": 2097,
  "\u2581nahikoa": 2098,
  "ras": 2099,
  "\u25812005": 2100,
  "galdetu": 2101,
  "\u2581hija": 2102,
  "par": 2103,
  "\u2581Lu": 2104,
  "\u2581sei": 2105,
  "\u2581ustez": 2106,
  "dio": 2107,
  "\u2581Ho": 2108,
  "\u2581f\u00e1cil": 2109,
  "\u2581sal": 2110,
  "\u2581mo": 2111,
  "tuko": 2112,
  "\u2581participaci\u00f3n": 2113,
  "\u2581eliza": 2114,
  "\u2581viene": 2115,
  "\u2581Haren": 2116,
  "\u2581be": 2117,
  "\u2581casos": 2118,
  "\u2581hartzea": 2119,
  "\u2581Espa\u00f1a": 2120,
  "\u2581Ja": 2121,
  "\u2581duzula": 2122,
  "\u2581o\u00eddo": 2123,
  "\u2581baitira": 2124,
  "\u2581fuego": 2125,
  "\u2581motivo": 2126,
  "\u2581animales": 2127,
  "05": 2128,
  "\u2581hemendik": 2129,
  "\u2581est\u00e9": 2130,
  "\u2581deben": 2131,
  "\u2581guk": 2132,
  "\u2581joateko": 2133,
  "\u2581lurralde": 2134,
  "\u2581hainbeste": 2135,
  "\u2581tel\u00e9fono": 2136,
  "\u2581ambos": 2137,
  "\u2581nengoen": 2138,
  "\u2581cine": 2139,
  "\u2581helburua": 2140,
  "\u2581mente": 2141,
  "\u2581Pe": 2142,
  "\u2581grafikoa": 2143,
  "\u2581gustatzen": 2144,
  "\u2581millones": 2145,
  "\u2581existencia": 2146,
  "\u2581gorde": 2147,
  "\u2581egitera": 2148,
  "\u2581fecha": 2149,
  "\u2581gaineko": 2150,
  "\u2581silencio": 2151,
  "mp": 2152,
  "\u2581ahaztu": 2153,
  "\u2581eder": 2154,
  "\u2581erran": 2155,
  "\u2581An": 2156,
  "AK": 2157,
  "\u2581Bera": 2158,
  "\u2581III": 2159,
  "\u2581Sus": 2160,
  "\u2581arau": 2161,
  "\u2581Fi": 2162,
  "\u2581miembros": 2163,
  "\u2581biltzen": 2164,
  "\u2581ser\u00e1n": 2165,
  "\u2581acceso": 2166,
  "retan": 2167,
  "\u2581jendea": 2168,
  "\u2581maitea": 2169,
  "\u2581izeneko": 2170,
  "\u2581mendi": 2171,
  "\u2581apur": 2172,
  "\u2581mapa": 2173,
  "ol": 2174,
  "\u2581John": 2175,
  "\u2581bakoitza": 2176,
  "ratu": 2177,
  "\u2581comer": 2178,
  "katu": 2179,
  "\u2581ahots": 2180,
  "\u25810": 2181,
  "\u2581igaro": 2182,
  "\u2581ea": 2183,
  "\u2581gerra": 2184,
  "\u2581Bizkaiko": 2185,
  "\u2581Departamento": 2186,
  "\u2581utziko": 2187,
  "\u2581entzuten": 2188,
  "\u2581errege": 2189,
  "\u2581minutu": 2190,
  "\u2581x": 2191,
  "Ha": 2192,
  "\u2581tren": 2193,
  "\u2581Muy": 2194,
  "\u2581eguna": 2195,
  "ido": 2196,
  "\u2581nirekin": 2197,
  "ita": 2198,
  "\u2581derechos": 2199,
  "tro": 2200,
  "\u2581hobe": 2201,
  "\u2581denez": 2202,
  "\u2581Seleccione": 2203,
  "\u2581gehien": 2204,
  "\u2581W": 2205,
  "\u2581Industria": 2206,
  "\u2581rostro": 2207,
  "\u2581sentitu": 2208,
  "\u2581negro": 2209,
  "\u2581aldean": 2210,
  "\u2581Du": 2211,
  "\u2581ocasi\u00f3n": 2212,
  "\u2581kopurua": 2213,
  "\u2581Benetan": 2214,
  "\u2581Ohar": 2215,
  "\u2581Jes\u00fas": 2216,
  "\u2581Internet": 2217,
  "\u2581municipio": 2218,
  "chi": 2219,
  "\u2581cuidado": 2220,
  "\u2581Lagun": 2221,
  "\u2581bo": 2222,
  "\u2581sarrera": 2223,
  "\u2581esperar": 2224,
  "\u2581honela": 2225,
  "\u2581ezagutza": 2226,
  "dores": 2227,
  "\u2581honi": 2228,
  "\u2581kanpoko": 2229,
  "\u2581zerbitzua": 2230,
  "\u2581ten\u00edan": 2231,
  "engatik": 2232,
  "\u2581geure": 2233,
  "\u2581izanez": 2234,
  "\u2581kide": 2235,
  "\u2581Casa": 2236,
  "\u2581funci\u00f3n": 2237,
  "\u2581podido": 2238,
  "\u2581Estaba": 2239,
  "\u2581www": 2240,
  "\u2581documentos": 2241,
  "\u2581hartuta": 2242,
  "ze": 2243,
  "sh": 2244,
  "pdf": 2245,
  "\u2581ja": 2246,
  "W": 2247,
  "\u2581esateko": 2248,
  "\u2581deseo": 2249,
  "\u2581miniaplikazioa": 2250,
  "\u2581horietako": 2251,
  "cho": 2252,
  "\u2581correspondiente": 2253,
  "\u2581joko": 2254,
  "Con": 2255,
  "\u2581R": 2256,
  "\u2581adiskide": 2257,
  "\u2581texto": 2258,
  "\u2581Mira": 2259,
  "\u2581Udalak": 2260,
  "\u2581herrialde": 2261,
  "\u2581profesional": 2262,
  "\u2581zinen": 2263,
  "\u2581izaki": 2264,
  "\u2581mismas": 2265,
  "\u2581oinarri": 2266,
  "\u2581aurkako": 2267,
  "\u2581mutil": 2268,
  "\u2581suficiente": 2269,
  "\u2581Estados": 2270,
  "\u2581cargo": 2271,
  "\u2581jarriko": 2272,
  "\u2581Badakizu": 2273,
  "\u2581arma": 2274,
  "\u2581distribuci\u00f3n": 2275,
  "\u2581etengabe": 2276,
  "\u2581industria": 2277,
  "kin": 2278,
  "\u2581heriotza": 2279,
  "\u2581literatura": 2280,
  "\u2581milioi": 2281,
  "\u2581onena": 2282,
  "\u2581zuenean": 2283,
  "\u2581Athletic": 2284,
  "\u2581arreta": 2285,
  "\u2581detr\u00e1s": 2286,
  "\u2581bihurtzen": 2287,
  "\u2581cuyo": 2288,
  "\u2581\u266a": 2289,
  "\u2581mas": 2290,
  "he": 2291,
  "\u2581Solo": 2292,
  "\u2581\"\u00a1": 2293,
  "\u2581jam\u00e1s": 2294,
  "\u2581local": 2295,
  "\u2581espezie": 2296,
  "\u2581p": 2297,
  "\u2581Beti": 2298,
  "DIGITALA": 2299,
  "\u2581Gauza": 2300,
  "\u2581Euskara": 2301,
  "ji": 2302,
  "\u2581Buenos": 2303,
  "reko": 2304,
  "\u2581ulertu": 2305,
  "bor": 2306,
  "\u2581Hab\u00eda": 2307,
  "\u2581horretaz": 2308,
  "\u2581espera": 2309,
  "\u2581Hi": 2310,
  "\u2581irabazi": 2311,
  "tal": 2312,
  "\u2581bereziki": 2313,
  "Est\u00e1": 2314,
  "\u2581direnak": 2315,
  "\u2581sociales": 2316,
  "tzailea": 2317,
  "\u2581encuentro": 2318,
  "tera": 2319,
  "aci\u00f3n": 2320,
  "\u2581azkar": 2321,
  "\u2581begiratzen": 2322,
  "\u2581eskaini": 2323,
  "\u2581lleg\u00f3": 2324,
  "\u2581gizaki": 2325,
  "\u2581To": 2326,
  "\u2581eskainiko": 2327,
  "\u2581unidad": 2328,
  "J": 2329,
  "\u2581junio": 2330,
  "\u2581completamente": 2331,
  "erantzun": 2332,
  "\u2581importancia": 2333,
  "\u2581torre": 2334,
  "\u2581atr\u00e1s": 2335,
  "\u2581aztertu": 2336,
  "\u2581planta": 2337,
  "\u2581lortzeko": 2338,
  "t\u00e9": 2339,
  "\u2581Mila": 2340,
  "\u2581bazen": 2341,
  "\u2581Carlos": 2342,
  "turik": 2343,
  "\u2581D\u00eda": 2344,
  "\u2581ta": 2345,
  "\u2581veo": 2346,
  "\u2581urrun": 2347,
  "12": 2348,
  "\u2581barrena": 2349,
  "\u2581lehenetsia": 2350,
  "\u2581hubiese": 2351,
  "\u2581cambia": 2352,
  "der": 2353,
  "\u2581Herri": 2354,
  "\u2581ardura": 2355,
  "\u2581comida": 2356,
  "\u2581erdian": 2357,
  "zioa": 2358,
  "Est\u00e1s": 2359,
  "\u2581bertako": 2360,
  "\u2581ordaindu": 2361,
  "\u2581tales": 2362,
  "\u2581ido": 2363,
  "\u2581Foral": 2364,
  "\u2581Tras": 2365,
  "pean": 2366,
  "\u2581edici\u00f3n": 2367,
  "\u2581construcci\u00f3n": 2368,
  "\u2581hasiera": 2369,
  "\u2581Ju": 2370,
  "\u2581eraso": 2371,
  "tzean": 2372,
  "\u2581necesita": 2373,
  "\u2581azaltzen": 2374,
  "\u2581pare": 2375,
  "\u2581erori": 2376,
  "\u2581horietan": 2377,
  "8": 2378,
  "\u00f1o": 2379,
  "\u00fa": 2380,
  "kar": 2381,
  "\u2581data": 2382,
  "\u2581capaz": 2383,
  "\u2581recursos": 2384,
  "\u2581trabajos": 2385,
  "\u2581Se\u00f1or": 2386,
  "\u2581alguno": 2387,
  "\u2581primeros": 2388,
  "\u2581respuesta": 2389,
  "\u2581Educaci\u00f3n": 2390,
  "fer": 2391,
  "AR": 2392,
  "\u2581jantzi": 2393,
  "\u2581adelante": 2394,
  "\u2581eragiten": 2395,
  "\u2581Etxeak": 2396,
  "rte": 2397,
  "Al": 2398,
  "bia": 2399,
  "ere": 2400,
  "\u2581diat": 2401,
  "\u2581venir": 2402,
  "\u2581adhesivas": 2403,
  "20": 2404,
  "\u2581juntos": 2405,
  "gra": 2406,
  "rekiko": 2407,
  "\u2581km": 2408,
  "\u2581\u00e1mbito": 2409,
  "\u2581idioma": 2410,
  "\u2581onartzen": 2411,
  "\u2581Ikusi": 2412,
  "\u2581Programa": 2413,
  "Ya": 2414,
  "\u2581aurpegi": 2415,
  "\u2581caballo": 2416,
  "\u2581ezaugarri": 2417,
  "\u2581p\u00fablica": 2418,
  "\u2581Jose": 2419,
  "\u2581deb\u00eda": 2420,
  "\u2581\"\u00bf": 2421,
  "\u2581creer": 2422,
  "ES": 2423,
  "\u2581antzeko": 2424,
  "\u2581irakurri": 2425,
  "\u2581serie": 2426,
  "\u2581hara": 2427,
  "\u2581jan": 2428,
  "\u2581mayo": 2429,
  "\u2581pan": 2430,
  "\u2581bestea": 2431,
  "\u2581ume": 2432,
  "\u2581biak": 2433,
  "\u2581pieza": 2434,
  "rean": 2435,
  "\u2581contigo": 2436,
  "\u2581moral": 2437,
  "\u2581Hoy": 2438,
  "\u2581cocina": 2439,
  "\u2581hotel": 2440,
  "\u2581p\u00e1gina": 2441,
  "\u2581mucha": 2442,
  "\u2581kale": 2443,
  "\u2581s\u00e1bado": 2444,
  "\u2581tenga": 2445,
  "\u2581chica": 2446,
  "\u2581dutenak": 2447,
  "bel": 2448,
  "\u2581zituela": 2449,
  "\u2581zaldi": 2450,
  "\u2581Tiene": 2451,
  "\u2581habla": 2452,
  "\u2581pa\u00edses": 2453,
  "\u2581Alde": 2454,
  "tin": 2455,
  "\u2581eskua": 2456,
  "gai": 2457,
  "\u2581nauzu": 2458,
  "\u2581apenas": 2459,
  "\u2581gauean": 2460,
  "\u2581pueblos": 2461,
  "\u2581conseguir": 2462,
  "\u2581pintura": 2463,
  "\u2581error": 2464,
  "\u2581gizonak": 2465,
  "\u2581jada": 2466,
  "\u2581equipo": 2467,
  "\u2581mende": 2468,
  "AN": 2469,
  "ER": 2470,
  "\u2581Car": 2471,
  "\u2581Cu": 2472,
  "\u2581handiena": 2473,
  "ng": 2474,
  "tina": 2475,
  "\u2581hablando": 2476,
  "\u2581Tal": 2477,
  "\u2581Turismo": 2478,
  "\u2581sigue": 2479,
  "\u2581Bigarren": 2480,
  "ska": 2481,
  "\u2581Inicio": 2482,
  "\u2581dagokion": 2483,
  "\u2581mu": 2484,
  "\u2581casas": 2485,
  "\u2581dej\u00f3": 2486,
  "\u2581ontzi": 2487,
  "\u2581Per": 2488,
  "\u2581conjunto": 2489,
  "\u2581na": 2490,
  "ry": 2491,
  "\u2581zaharra": 2492,
  "\u2581formato": 2493,
  "\u2581ene": 2494,
  "\u2581galdera": 2495,
  "\u2581gusto": 2496,
  "\u2581100": 2497,
  "tur": 2498,
  "\u2581bestela": 2499,
  "\u25814.": 2500,
  "\u2581centros": 2501,
  "\u2581quiz\u00e1": 2502,
  "\u2581humano": 2503,
  "\u2581naizela": 2504,
  "\u2581zabal": 2505,
  "\u2581digu": 2506,
  "\u2581Durante": 2507,
  "\u2581prueba": 2508,
  "\u2581zurekin": 2509,
  "buru": 2510,
  "\u2581zarete": 2511,
  "\u2581Parte": 2512,
  "\u2581artista": 2513,
  "\u2581proiektu": 2514,
  "\u2581Nueva": 2515,
  "\u2581puntos": 2516,
  "\u2581dezake": 2517,
  "\u2581ondorio": 2518,
  "\u2581comunicaci\u00f3n": 2519,
  "\u2581ehun": 2520,
  "\u2581modelo": 2521,
  "\u2581Eguna": 2522,
  "\u2581permite": 2523,
  "nda": 2524,
  "\u2581berezi": 2525,
  "\u2581gogor": 2526,
  "\u2581oportunidad": 2527,
  "\u2581Bestalde": 2528,
  "\u2581etorriko": 2529,
  "\u2581honetako": 2530,
  "\u2581Ben": 2531,
  "\u2581Erre": 2532,
  "\u2581Ne": 2533,
  "\u2581salud": 2534,
  "\u2581Jainkoa": 2535,
  "\u2581borroka": 2536,
  "\u2581dolor": 2537,
  "\u2581Lengua": 2538,
  "\u2581estudios": 2539,
  "\u2581Gipuzkoako": 2540,
  "len": 2541,
  "\u2581exterior": 2542,
  "\u2581moduz": 2543,
  "it": 2544,
  "\u2581Cada": 2545,
  "\u2581control": 2546,
  "\u2581eseri": 2547,
  "\u2581virtud": 2548,
  "pu": 2549,
  "\u2581Cultura": 2550,
  "\u2581presentar": 2551,
  "\u2581viernes": 2552,
  "\u2581energ\u00eda": 2553,
  "\u2581aquello": 2554,
  "\u2581Har": 2555,
  "\u2581pudiera": 2556,
  "\u2581Santiago": 2557,
  "\u2581gune": 2558,
  "\u2581gorri": 2559,
  "\u2581presentaci\u00f3n": 2560,
  "\u2581julio": 2561,
  "\u2581cualquiera": 2562,
  "\u2581pu": 2563,
  "\u2581balu": 2564,
  "\u2581Auto": 2565,
  "Vamos": 2566,
  "iko": 2567,
  "\u2581Pre": 2568,
  "\u2581visita": 2569,
  "\u2581compa\u00f1\u00eda": 2570,
  "\u2581distintas": 2571,
  "\u2581escuela": 2572,
  "\u2581lekua": 2573,
  "cen": 2574,
  "\u2581cu": 2575,
  "\u2581Zenbat": 2576,
  "\u2581pr\u00f3ximo": 2577,
  "\u2581somos": 2578,
  "\u2581imposible": 2579,
  "\u2581ustedes": 2580,
  "xe": 2581,
  "\u2581CPU": 2582,
  "\u2581Sal": 2583,
  "\u2581creaci\u00f3n": 2584,
  "\u2581elementu": 2585,
  "izaci\u00f3n": 2586,
  "\u2581festa": 2587,
  "\u2581instante": 2588,
  "\u2581Imagen": 2589,
  "\u2581hirugarren": 2590,
  "\u2581Par\u00eds": 2591,
  "Que": 2592,
  "gintza": 2593,
  "\u2581ikerketa": 2594,
  "\u2581Entzun": 2595,
  "\u2581pi": 2596,
  "rme": 2597,
  "\u2581hauen": 2598,
  "\u2581justo": 2599,
  "\u2581Behin": 2600,
  "\u2581mayores": 2601,
  "\u2581aspecto": 2602,
  "\u2581acciones": 2603,
  "\u2581morir": 2604,
  "\u2581vosotros": 2605,
  "10": 2606,
  "\u2581Ti": 2607,
  "\u2581aurkituko": 2608,
  "cion": 2609,
  "\u2581aurpegia": 2610,
  "\u2581septiembre": 2611,
  "\u2581askotan": 2612,
  "\u2581kirol": 2613,
  "\u2581esencia": 2614,
  "agatik": 2615,
  "ekoa": 2616,
  "\u2581botere": 2617,
  "Mi": 2618,
  "\u2581mierda": 2619,
  "\u2581pensamiento": 2620,
  "cer": 2621,
  "\u2581berari": 2622,
  "\u2581arima": 2623,
  "\u2581herriko": 2624,
  "\u2581Bu": 2625,
  "\u2581daba": 2626,
  "bat": 2627,
  "ente": 2628,
  "\u2581osagai": 2629,
  "\u2581ro": 2630,
  "\u2581presenta": 2631,
  "\u2581abiatu": 2632,
  "\u2581posibilidad": 2633,
  "bre": 2634,
  "\u2581Nahi": 2635,
  "\u2581Municipal": 2636,
  "\u2581lortzen": 2637,
  "\u2581Mu": 2638,
  "\u2581alumnos": 2639,
  "\u2581hurbildu": 2640,
  "\u2581merezi": 2641,
  "\u2581txarra": 2642,
  "\u2581Siempre": 2643,
  "\u2581biok": 2644,
  "\u2581dan": 2645,
  "\u2581kontzientzia": 2646,
  "\u2581Francia": 2647,
  "\u2581Lau": 2648,
  "\u2581txikia": 2649,
  "\u2581ditugun": 2650,
  "\u2581emandako": 2651,
  "\u2581Ley": 2652,
  "\u2581egokia": 2653,
  "rren": 2654,
  "\u2581t\u00edtulo": 2655,
  "Nafarroa": 2656,
  "\u2581nuela": 2657,
  "tasunaren": 2658,
  "\u2581erabiltzeko": 2659,
  "\u00f1e": 2660,
  "\u2581dakizu": 2661,
  "\u2581Tra": 2662,
  "\u2581emaitza": 2663,
  "\u2581triste": 2664,
  "\u2581Plaza": 2665,
  "\u2581diferente": 2666,
  "\u2581suma": 2667,
  "\u2581abar": 2668,
  "\u2581productos": 2669,
  "\u2581placer": 2670,
  "\u2581concepto": 2671,
  "\u2581colaboraci\u00f3n": 2672,
  "\u2581egitura": 2673,
  "\u2581particular": 2674,
  "\u2581Aunque": 2675,
  "\u2581Del": 2676,
  "\u2581perder": 2677,
  "\u2581mailako": 2678,
  "\u2581iruditu": 2679,
  "\u2581cambiar": 2680,
  "\u2581Zi": 2681,
  "\u2581diciendo": 2682,
  "\u2581esperientzia": 2683,
  "\u2581beharrik": 2684,
  "\u2581EL": 2685,
  "illa": 2686,
  "\u2581deber\u00eda": 2687,
  "\u2581qued\u00f3": 2688,
  "\u2581Zerbait": 2689,
  "\u2581cultural": 2690,
  "\u2581handiz": 2691,
  "\u2581resulta": 2692,
  "\u2581Bertan": 2693,
  "\u2581jaitsi": 2694,
  "\u2581oficial": 2695,
  "\u2581Kultur": 2696,
  "\u2581pel\u00edcula": 2697,
  "25": 2698,
  "\u2581Nazioarteko": 2699,
  "\u2581Hil": 2700,
  "\u2581realizado": 2701,
  "04": 2702,
  "\u2581beharbada": 2703,
  "\u2581exposici\u00f3n": 2704,
  "\u2581inter": 2705,
  "\u2581jaio": 2706,
  "\u2581metro": 2707,
  "ine": 2708,
  "\u2581bukatu": 2709,
  "\u2581EN": 2710,
  "\u2581begirada": 2711,
  "\u2581Informazio": 2712,
  "\u2581inmediatamente": 2713,
  "\u2581torno": 2714,
  "\u2581Edo": 2715,
  "\u2581evitar": 2716,
  "\u2581ocho": 2717,
  "\u2581querido": 2718,
  "\u2581bidean": 2719,
  "\u2581kg": 2720,
  "rea": 2721,
  "\u2581izanen": 2722,
  "\u2581Informaci\u00f3n": 2723,
  "\u2581bestelako": 2724,
  "\u2581Puede": 2725,
  "\u2581eserita": 2726,
  "ric": 2727,
  "\u2581momentos": 2728,
  "\u2581po": 2729,
  "\u2581principios": 2730,
  "\u2581bihar": 2731,
  "\u2581expresi\u00f3n": 2732,
  "\u2581alaba": 2733,
  "\u2581tresna": 2734,
  "\u2581aste": 2735,
  "ec": 2736,
  "tia": 2737,
  "\u2581\u00e9stos": 2738,
  "\u2581Uno": 2739,
  "\u2581elkarrizketa": 2740,
  "\u2581hermana": 2741,
  "\u258140": 2742,
  "\u2581baldintza": 2743,
  "\u2581precisamente": 2744,
  "\u2581fachada": 2745,
  "\u2581sent\u00eda": 2746,
  "\u2581min": 2747,
  "\u2581Espainiako": 2748,
  "Navarra": 2749,
  "\u2581distintos": 2750,
  "\u2581munduko": 2751,
  "\u2581utilizar": 2752,
  "\u2581radar": 2753,
  "\u2581Bide": 2754,
  "\u2581Tenemos": 2755,
  "\u2581especies": 2756,
  "\u2581ne": 2757,
  "stra": 2758,
  "\u2581teatro": 2759,
  "ua": 2760,
  "\u2581hurbil": 2761,
  "Quieres": 2762,
  "pregunt\u00f3": 2763,
  "\u2581dicen": 2764,
  "\u2581capacidad": 2765,
  "\u2581fabrika": 2766,
  "sto": 2767,
  "\u2581zeure": 2768,
  "\u2581jadanik": 2769,
  "\u2581berrien": 2770,
  "\u2581eginda": 2771,
  "\u2581mir\u00f3": 2772,
  "\u2581gogo": 2773,
  "ut": 2774,
  "\u2581altura": 2775,
  "\u2581dadin": 2776,
  "\u2581iritzi": 2777,
  "\u2581gustar\u00eda": 2778,
  "\u2581marzo": 2779,
  "ario": 2780,
  "ola": 2781,
  "tzerik": 2782,
  "\u2581datu": 2783,
  "\u2581Eliza": 2784,
  "\u2581New": 2785,
  "\u2581zenuke": 2786,
  "\u2581irribarre": 2787,
  "IN": 2788,
  "\u2581:": 2789,
  "\u2581noiz": 2790,
  "\u2581lucha": 2791,
  "\u2581arkitektura": 2792,
  "\u2581doa": 2793,
  "\u2581trans": 2794,
  "\u2581Man": 2795,
  "\u2581organizado": 2796,
  "\u2581P\u00e1gina": 2797,
  "\u2581cierta": 2798,
  "\u2581siete": 2799,
  "\u2581Bar": 2800,
  "\u2581esposa": 2801,
  "\u2581tiro": 2802,
  "\u2581eskubidea": 2803,
  "\u2581eskola": 2804,
  "\u2581orduko": 2805,
  "\u2581aplicaci\u00f3n": 2806,
  "\u2581perdido": 2807,
  "hu": 2808,
  "\u2581Mikel": 2809,
  "\u2581erabil": 2810,
  "Oh": 2811,
  "\u2581origen": 2812,
  "lia": 2813,
  "\u2581completo": 2814,
  "\u2581eredu": 2815,
  "\u2581partida": 2816,
  "\u2581Unibertsitate": 2817,
  "ila": 2818,
  "\u2581lugares": 2819,
  "\u00e9n": 2820,
  "\u2581Eskola": 2821,
  "tura": 2822,
  "\u2581diogu": 2823,
  "\u2581onak": 2824,
  "\u2581ve\u00eda": 2825,
  "\u2581Administraci\u00f3n": 2826,
  "\u2581York": 2827,
  "\u2581bihotza": 2828,
  "gre": 2829,
  "ea": 2830,
  "\u2581gutxienez": 2831,
  "\u2581usuario": 2832,
  "um": 2833,
  "kor": 2834,
  "xa": 2835,
  "\u2581ezartzen": 2836,
  "itz": 2837,
  "\u2581contar": 2838,
  "\u2581indarra": 2839,
  "...\"": 2840,
  "\u2581kontua": 2841,
  "\u2581zi": 2842,
  "\u2581Etxe": 2843,
  "edo": 2844,
  "\u2581muga": 2845,
  "\u2581kontrako": 2846,
  "\u2581oinarrizko": 2847,
  "\u2581berez": 2848,
  "\u2581humana": 2849,
  "\u2581opci\u00f3n": 2850,
  "\u2581propios": 2851,
  "\u2581jar": 2852,
  "para": 2853,
  "egia": 2854,
  "yo": 2855,
  "\u2581clases": 2856,
  "\u2581honor": 2857,
  "\u2581ostean": 2858,
  "\u2581Don": 2859,
  "\u2581diseinua": 2860,
  "\u2581ohiko": 2861,
  "j": 2862,
  "gui": 2863,
  "\u2581nombres": 2864,
  "\u2581oihu": 2865,
  "\u2581erosi": 2866,
  "\u2581dator": 2867,
  "\u2581cena": 2868,
  "',": 2869,
  "ex": 2870,
  "\u2581Voy": 2871,
  "\u2581capital": 2872,
  "\u2581Consejo": 2873,
  "\u2581handiko": 2874,
  "\u2581poblaci\u00f3n": 2875,
  "\u2581panel": 2876,
  "\u2581ura": 2877,
  "\u2581Lege": 2878,
  "ley": 2879,
  "\u2581Sistema": 2880,
  "\u2581Zeren": 2881,
  "\u2581arquitectura": 2882,
  "\u2581tiempos": 2883,
  "\u2581hauetan": 2884,
  "\u2581interesa": 2885,
  "\u2581irakasle": 2886,
  "\u2581usar": 2887,
  "\u2581ondorengo": 2888,
  "\u2581Claro": 2889,
  "BAR": 2890,
  "nta": 2891,
  "\u2581dagoeneko": 2892,
  "\u2581taldeak": 2893,
  "ger": 2894,
  "txi": 2895,
  "\u2581ciencia": 2896,
  "\u2581diversos": 2897,
  "\u2581egungo": 2898,
  "\u2581ciudadanos": 2899,
  "\u2581erakusketa": 2900,
  "\u2581argitaratu": 2901,
  "\u2581pregunt\u00f3": 2902,
  "\u2581recuerdo": 2903,
  "\u2581man": 2904,
  "\u2581Gazte": 2905,
  "\u2581ej\u00e9rcito": 2906,
  "\u2581hasieran": 2907,
  "ados": 2908,
  "\u2581apoyo": 2909,
  "EHU": 2910,
  "\u2581bero": 2911,
  "\u2581bizirik": 2912,
  "\u2581peque\u00f1os": 2913,
  "Yo": 2914,
  "mer": 2915,
  "RI": 2916,
  "\u2581Gi": 2917,
  "\u2581Hasta": 2918,
  "\u2581crear": 2919,
  "\u2581marido": 2920,
  "Araba": 2921,
  "del": 2922,
  "\u2581XX": 2923,
  "\u2581energia": 2924,
  "\u2581Pu": 2925,
  "\u2581Utzi": 2926,
  "\u2581barrio": 2927,
  "\u2581bitarteko": 2928,
  "\u2581ilun": 2929,
  "arentzat": 2930,
  "\u2581USB": 2931,
  "\u2581ciudades": 2932,
  "\u2581eramaten": 2933,
  "\u2581ko": 2934,
  "\u2581itzultzen": 2935,
  "\u2581itsas": 2936,
  "Baina": 2937,
  "Comment": 2938,
  "\u2581contenido": 2939,
  "\u2581escribir": 2940,
  "\u2581Fa": 2941,
  "\u2581Ven": 2942,
  "\u2581Social": 2943,
  "50": 2944,
  "\u2581feliz": 2945,
  "\u2581taldea": 2946,
  "\u2581l\u00edneas": 2947,
  "\u2581dezakegu": 2948,
  "\u2581verano": 2949,
  "\u2581leiho": 2950,
  "\u2581pr\u00edncipe": 2951,
  "\u2581Eres": 2952,
  "\u2581diversas": 2953,
  "\u2581prestatu": 2954,
  "\u2581puta": 2955,
  "\u2581Agian": 2956,
  "\u2581XVI": 2957,
  "\u2581abril": 2958,
  "\u2581leer": 2959,
  "\u2581mejores": 2960,
  "\u2581kanpora": 2961,
  "\u2581iristen": 2962,
  "\u2581datorren": 2963,
  "dy": 2964,
  "08": 2965,
  "\u2581beharrezkoa": 2966,
  "\u2581territorio": 2967,
  "\u2581direnean": 2968,
  "\u2581cantidad": 2969,
  "\u2581zor": 2970,
  "Un": 2971,
  "\u2581naizen": 2972,
  "\u2581noches": 2973,
  "\u2581Ciencias": 2974,
  "\u2581norbait": 2975,
  "lla": 2976,
  "\u2581Ga": 2977,
  "\u2581Horrek": 2978,
  "\u2581ohitura": 2979,
  "07": 2980,
  "\u2581erraz": 2981,
  "\u2581fuerzas": 2982,
  "\u2581llamado": 2983,
  "\u2581montones": 2984,
  "\u2581epea": 2985,
  "\u2581Cor": 2986,
  "\u2581Sam": 2987,
  "\u2581destino": 2988,
  "\u2581grado": 2989,
  "\u2581Jainkoaren": 2990,
  "\u2581transporte": 2991,
  "tivo": 2992,
  "\u2581haga": 2993,
  "\u2581Esa": 2994,
  "\u2581distancia": 2995,
  "\u2581llamar": 2996,
  "\u2581doctor": 2997,
  "\u2581zizkion": 2998,
  "zar": 2999,
  "\u2581arratsaldeko": 3000,
  "TA": 3001,
  "mas": 3002,
  "\u25812004": 3003,
  "\u2581conocido": 3004,
  "\u2581gogoa": 3005,
  "\u2581Berak": 3006,
  "\u2581Mesedez": 3007,
  "\u2581sector": 3008,
  "\u2581Enpresa": 3009,
  "\u2581dejado": 3010,
  "\u2581resultado": 3011,
  "\u2581Administrazio": 3012,
  "\u2581Internacional": 3013,
  "\u2581Madrid": 3014,
  "ekiko": 3015,
  "\u2581dion": 3016,
  "\u2581entorno": 3017,
  "\u2581estar\u00e1": 3018,
  "\u2581jartzeko": 3019,
  "mon": 3020,
  "rei": 3021,
  "\u2581enero": 3022,
  "\u2581Color": 3023,
  "\u2581dama": 3024,
  "\u2581dituela": 3025,
  "\u2581jugar": 3026,
  "arekiko": 3027,
  "\u2581Argi": 3028,
  "\u2581kasuan": 3029,
  "ces": 3030,
  "\u2581armas": 3031,
  "\u2581jabe": 3032,
  "16": 3033,
  "\u2581azul": 3034,
  "\u2581Aurreko": 3035,
  "\u2581jefe": 3036,
  "\u2581kontatu": 3037,
  "\u2581ordena": 3038,
  "im": 3039,
  "\u2581garrantzitsua": 3040,
  "\u2581ci": 3041,
  "\u2581mitad": 3042,
  "mina": 3043,
  "\u2581harrapatu": 3044,
  "\u2581eraiki": 3045,
  "\u2581Ten\u00eda": 3046,
  "\u2581haces": 3047,
  "\u2581to": 3048,
  "\u2581g\u00e9nero": 3049,
  "\u2581duenean": 3050,
  "\u2581Ana": 3051,
  "\u2581etxebizitza": 3052,
  "\u2581goizean": 3053,
  "\u2581jaun": 3054,
  "\u2581solicitud": 3055,
  "\u2581r\u00e1pido": 3056,
  "\u2581S\u00e9": 3057,
  "\u2581gehiegi": 3058,
  "\u2581principales": 3059,
  "\u2581colores": 3060,
  "\u2581instalaciones": 3061,
  "\u2581tamaina": 3062,
  "\u2581tablero": 3063,
  "\u2581totalmente": 3064,
  "\u2581guztiei": 3065,
  "\u2581harria": 3066,
  "rru": 3067,
  "\u2581calles": 3068,
  "\u2581ile": 3069,
  "\u2581importantes": 3070,
  "\u2581tanta": 3071,
  "ts": 3072,
  "\u2581recibir": 3073,
  "\u2581semea": 3074,
  "\u2581mugitu": 3075,
  "\u2581rojo": 3076,
  "\u2581GNOME": 3077,
  "lar": 3078,
  "\u2581caer": 3079,
  "\u2581\u00c1lava": 3080,
  "itu": 3081,
  "\u2581do": 3082,
  "\u2581negar": 3083,
  "\u2581zitekeen": 3084,
  "\u2581debido": 3085,
  "\u2581pasos": 3086,
  "\u2581bar": 3087,
  "\u2581Bal": 3088,
  "\u2581aukeratu": 3089,
  "dar": 3090,
  "ito": 3091,
  "\u2581ar": 3092,
  "\u2581zaila": 3093,
  "ite": 3094,
  "\u2581Hain": 3095,
  "\u2581Diputaci\u00f3n": 3096,
  "\u2581abrir": 3097,
  "\u2581kausa": 3098,
  "\u2581Ber": 3099,
  "\u2581franc\u00e9s": 3100,
  "\u2581ondoko": 3101,
  "tri": 3102,
  "\u2581noa": 3103,
  "\u2581zarela": 3104,
  "gune": 3105,
  "\u2581Mas": 3106,
  "\u2581Usted": 3107,
  "\u2581abenduaren": 3108,
  "\u2581Comisi\u00f3n": 3109,
  "\u2581zentzu": 3110,
  "\u2581jasan": 3111,
  "\u2581pago": 3112,
  "oso": 3113,
  "teko": 3114,
  "\u2581educaci\u00f3n": 3115,
  "bal": 3116,
  "\u2581dezaket": 3117,
  "\u2581industrial": 3118,
  "\u2581pr\u00e1ctica": 3119,
  "\u2581gogoan": 3120,
  "kuntza": 3121,
  "\u2581actualizaci\u00f3n": 3122,
  "\u2581llevaba": 3123,
  "gabe": 3124,
  "\u2581Andre": 3125,
  "\u2581bakoitzaren": 3126,
  "\u2581beltz": 3127,
  "\u2581pozik": 3128,
  "\u2581salida": 3129,
  "nio": 3130,
  "ll": 3131,
  "\u2581llega": 3132,
  "\u2581o\u00edr": 3133,
  "\u2581podr\u00e1n": 3134,
  "\u2581beraien": 3135,
  "\u2581dicha": 3136,
  "\u2581Nafarroako": 3137,
  "\u2581hago": 3138,
  "\u2581sesi\u00f3n": 3139,
  "can": 3140,
  "\u2581violencia": 3141,
  "\u2581Servicio": 3142,
  "\u2581munduan": 3143,
  "\u2581argazki": 3144,
  "\u2581amaiera": 3145,
  "\u2581carretera": 3146,
  "\u2581obtener": 3147,
  "\u2581temas": 3148,
  "\u2581zaion": 3149,
  "\u2581Berri": 3150,
  "\u2581deja": 3151,
  "\u2581gertu": 3152,
  "\u2581contacto": 3153,
  "\u2581necesidades": 3154,
  "18": 3155,
  "\u2581consecuencia": 3156,
  "\u2581zerbitzuak": 3157,
  "\u2581Denbora": 3158,
  "\u258160": 3159,
  "\u2581sub": 3160,
  "til": 3161,
  "\u2581escrito": 3162,
  "\u2581tri": 3163,
  "\u2581Nada": 3164,
  "\u2581argia": 3165,
  "\u2581pap\u00e1": 3166,
  "\u2581venido": 3167,
  "\u2581Fundaci\u00f3n": 3168,
  "\u2581puedan": 3169,
  "tatu": 3170,
  "\u2581Garai": 3171,
  "\u2581kon": 3172,
  "\u2581dirudi": 3173,
  "\u2581ibiltzen": 3174,
  "\u2581metros": 3175,
  "\u2581odol": 3176,
  "\u2581badute": 3177,
  "\u2581hitza": 3178,
  "\u2581Servicios": 3179,
  "\u2581comunidad": 3180,
  "Gasteiz": 3181,
  "\u2581Noticias": 3182,
  "\u2581im\u00e1genes": 3183,
  "tuak": 3184,
  "via": 3185,
  "\u2581ikasle": 3186,
  "\u2581relaciones": 3187,
  "\u2581saria": 3188,
  "\u2581polvo": 3189,
  "\u2581Ene": 3190,
  "\u2581Bateria": 3191,
  "\u2581Cha": 3192,
  "\u2581KB": 3193,
  "\u2581datuak": 3194,
  "oa": 3195,
  "\u2581Mendi": 3196,
  "izar": 3197,
  "\u2581sue\u00f1o": 3198,
  "\u2581tira": 3199,
  "\u2581Ex": 3200,
  "\u2581seguru": 3201,
  "\u2581zuzenean": 3202,
  "\u2581anaia": 3203,
  "\u2581eramango": 3204,
  "\u2581Hartu": 3205,
  "\u2581Jonathan": 3206,
  "\u2581Type": 3207,
  "\u2581hice": 3208,
  "\u2581Mientras": 3209,
  "\u2581eskutik": 3210,
  "\u2581Aurrera": 3211,
  "\u2581laguntzen": 3212,
  "\u2581nintzela": 3213,
  "tsa": 3214,
  "\u2581bu": 3215,
  "\u2581hogeita": 3216,
  "\u2581verde": 3217,
  "\u2581gelditzen": 3218,
  "\u2581egoten": 3219,
  "\u2581locales": 3220,
  "\u2581jardun": 3221,
  "tiko": 3222,
  "\u2581Antonio": 3223,
  "\u2581atal": 3224,
  "\u2581polita": 3225,
  "ff": 3226,
  "mb": 3227,
  "\u2581baliabide": 3228,
  "Ba": 3229,
  "\u2581precio": 3230,
  "\u2581sartzeko": 3231,
  "\u2581zitzaizkion": 3232,
  "bles": 3233,
  "verdad": 3234,
  "\u2581UPV": 3235,
  "\u2581eragina": 3236,
  "\u2581larga": 3237,
  "\u2581Urte": 3238,
  "\u2581brazos": 3239,
  "\u2581caracter\u00edsticas": 3240,
  "\u2581isla": 3241,
  "\u2581completa": 3242,
  "\u2581Guggenheim": 3243,
  "\u2581especialmente": 3244,
  "\u2581nagusiak": 3245,
  "ig": 3246,
  "\u2581esatea": 3247,
  "\u2581horma": 3248,
  "\u2581oker": 3249,
  "\u2581Etxeko": 3250,
  "\u2581esfuerzo": 3251,
  "\u2581hauxe": 3252,
  "\u2581director": 3253,
  "\u2581lotura": 3254,
  "bera": 3255,
  "dra": 3256,
  "\u2581cree": 3257,
  "\u2581Hezkuntza": 3258,
  "\u2581barra": 3259,
  "\u2581eremu": 3260,
  "\u2581Ciudad": 3261,
  "\u2581Roma": 3262,
  "\u2581zaren": 3263,
  "\u2581Estos": 3264,
  "\u2581Musika": 3265,
  "Eso": 3266,
  "\u2581mugimendu": 3267,
  "\u2581Web": 3268,
  "\u2581autor": 3269,
  "\u2581correo": 3270,
  "\u2581jakina": 3271,
  "13": 3272,
  "\u00f1": 3273,
  "\u2581hubo": 3274,
  "\u2581zirudien": 3275,
  "\u2581hicieron": 3276,
  "\u2581pasatzen": 3277,
  "\u2581presidente": 3278,
  "9": 3279,
  "arte": 3280,
  "\u2581disco": 3281,
  "\u2581resultados": 3282,
  "\u2581valores": 3283,
  "\u2581Ri": 3284,
  "\u2581ekitaldi": 3285,
  "\u2581mantener": 3286,
  "\u2581\u00e9xito": 3287,
  "14": 3288,
  "fu": 3289,
  "\u2581fr\u00edo": 3290,
  "\u2581nork": 3291,
  "\u2581mam\u00e1": 3292,
  "\u2581busca": 3293,
  "tiva": 3294,
  "\u2581dugula": 3295,
  "\u2581horretatik": 3296,
  "\u2581ikustea": 3297,
  "lari": 3298,
  "\u2581justicia": 3299,
  "iza": 3300,
  "\u2581Goi": 3301,
  "\u2581orokorra": 3302,
  "\u2581doan": 3303,
  "\u25815.": 3304,
  "\u2581concierto": 3305,
  "\u2581pone": 3306,
  "\u2581zertan": 3307,
  "\u2581gaia": 3308,
  "sio": 3309,
  "\u2581hantxe": 3310,
  "\u2581haserre": 3311,
  "\u2581Basque": 3312,
  "\u2581brazo": 3313,
  "Su": 3314,
  "\u2581tradicional": 3315,
  "\u2581asmoa": 3316,
  "mendu": 3317,
  "\u2581mendeko": 3318,
  "\u2581Peter": 3319,
  "\u2581empleo": 3320,
  "\u2581zehatz": 3321,
  "\u2581Com": 3322,
  "\u2581adina": 3323,
  "\u2581ambiente": 3324,
  "\u2581ruido": 3325,
  "\u2581saiatzen": 3326,
  "\u2581ukitu": 3327,
  "\u2581marco": 3328,
  "\u2581politika": 3329,
  "tzaileak": 3330,
  "\u2581mercado": 3331,
  "\u2581konturatu": 3332,
  "\u2581sali\u00f3": 3333,
  "Ma": 3334,
  "land": 3335,
  "Los": 3336,
  "ika": 3337,
  "\u2581zazpi": 3338,
  "\u2581estuvo": 3339,
  "\u2581mala": 3340,
  "\u2581iraun": 3341,
  "\u2581XIX": 3342,
  "\u2581ayudas": 3343,
  "\u2581culpa": 3344,
  "\u2581quieren": 3345,
  "\u2581esperanza": 3346,
  "22": 3347,
  "\u2581etab": 3348,
  "\u2581nere": 3349,
  "\u2581animal": 3350,
  "\u2581m\u00eda": 3351,
  "\u2581Er": 3352,
  "\u2581Kaka": 3353,
  "\u2581predeterminado": 3354,
  "\u2581badakizu": 3355,
  "\u2581encuentran": 3356,
  "\u2581m\u00e1ximo": 3357,
  "\u2581Va": 3358,
  "\u2581baimena": 3359,
  "\u2581uko": 3360,
  "\u2581zerga": 3361,
  "\u2581hiltzen": 3362,
  "\u2581Euskadiko": 3363,
  "\u2581izandako": 3364,
  "\u2581zuhaitz": 3365,
  "ide": 3366,
  "\u2581cuesti\u00f3n": 3367,
  "\u2581tipos": 3368,
  "\u2581bienes": 3369,
  "\u2581hu": 3370,
  "\u2581eguneratzea": 3371,
  "\u2581organizaci\u00f3n": 3372,
  "\u2581ocurre": 3373,
  "\u2581vivienda": 3374,
  "\u2581Bada": 3375,
  "\u2581Hace": 3376,
  "aga": 3377,
  "tarra": 3378,
  "\u2581alegr\u00eda": 3379,
  "\u2581zin": 3380,
  "si\u00f3n": 3381,
  "\u2581verdadero": 3382,
  "tsua": 3383,
  "\u2581Lehenengo": 3384,
  "\u2581estructura": 3385,
  "\u2581modificaci\u00f3n": 3386,
  "zen": 3387,
  "\u2581Oraindik": 3388,
  "et": 3389,
  "\u2581cal": 3390,
  "\u2581suyo": 3391,
  "\u2581zihoan": 3392,
  "Re": 3393,
  "\u2581mover": 3394,
  "\u2581osatu": 3395,
  "\u2581kgm": 3396,
  "\u2581publiko": 3397,
  "\u2581atsegina": 3398,
  "\u2581gas": 3399,
  "\u2581har\u00e1": 3400,
  "\u2581Ki": 3401,
  "\u2581abierto": 3402,
  "\u2581elkarri": 3403,
  "\u2581buenos": 3404,
  "\u2581zonas": 3405,
  "ed": 3406,
  "txu": 3407,
  "\u2581actuaci\u00f3n": 3408,
  "\u2581bikaina": 3409,
  "\u2581Kon": 3410,
  "\u2581Une": 3411,
  "\u2581deber\u00e1": 3412,
  "\u2581empez\u00f3": 3413,
  "\u2581noble": 3414,
  "\u2581Tienes": 3415,
  "\u2581lerro": 3416,
  "\u2581sar": 3417,
  "\u2581sari": 3418,
  "\u2581zaitu": 3419,
  "\u2581costumbre": 3420,
  "\u2581(18": 3421,
  "\u2581pareci\u00f3": 3422,
  "\u2581participar": 3423,
  "\u2581vivo": 3424,
  "\u2581erakusteko": 3425,
  "\u2581simple": 3426,
  "\u2581honekin": 3427,
  "\u2581puertas": 3428,
  "\u2581Ados": 3429,
  "\u2581beso": 3430,
  "\u2581representaci\u00f3n": 3431,
  "\u2581zuek": 3432,
  "\u2581objetos": 3433,
  "06": 3434,
  "\u2581Medio": 3435,
  "\u2581eskuak": 3436,
  "nu": 3437,
  "\u2581Erdi": 3438,
  "\u2581dei": 3439,
  "\u2581matar": 3440,
  "\u2581politiko": 3441,
  "cre": 3442,
  "\u2581Escuela": 3443,
  "\u2581Mondragon": 3444,
  "\u2581debajo": 3445,
  "\u2581juicio": 3446,
  "\u2581pista": 3447,
  "\u2581Quiz\u00e1": 3448,
  "\u2581mensaje": 3449,
  "\u2581menudo": 3450,
  "\u2581peligro": 3451,
  "\u2581domingo": 3452,
  "\u2581militar": 3453,
  "\u2581fi": 3454,
  "\u2581monte": 3455,
  "\u2581profesor": 3456,
  "\u2581jartzea": 3457,
  "\u2581tra": 3458,
  "au": 3459,
  "\u2581supone": 3460,
  "arazi": 3461,
  "\u2581Villa": 3462,
  "\u2581badugu": 3463,
  "\u2581chico": 3464,
  "\u2581film": 3465,
  "\u2581mirar": 3466,
  "\u2581entidades": 3467,
  "at": 3468,
  "\u2581Horixe": 3469,
  "\u2581arena": 3470,
  "\u2581IV": 3471,
  "Ah": 3472,
  "\u2581Sur": 3473,
  "pin": 3474,
  "\u2581Dos": 3475,
  "\u2581lehiaketa": 3476,
  "bio": 3477,
  "\u2581gutun": 3478,
  "\u2581azaroaren": 3479,
  "\u2581Sentitzen": 3480,
  "\u2581buenas": 3481,
  "\u2581Mal": 3482,
  "\u2581ezarritako": 3483,
  "21": 3484,
  "ura": 3485,
  "\u2581aguas": 3486,
  "\u2581mira": 3487,
  "\u258100:00": 3488,
  "\u2581Ondoren": 3489,
  "\u2581zortzi": 3490,
  "\u2581Ese": 3491,
  "\u2581geroago": 3492,
  "\u2581sacar": 3493,
  ");": 3494,
  "tatik": 3495,
  "\u2581jokatu": 3496,
  ":%": 3497,
  "\u2581fuese": 3498,
  "[": 3499,
  "\u2581beharrean": 3500,
  "\u2581dormir": 3501,
  "\u2581gertatuko": 3502,
  "\u2581reina": 3503,
  "\u2581Sobre": 3504,
  "\u2581dolar": 3505,
  "\u2581emaztea": 3506,
  "\u2581hobea": 3507,
  "\u2581jai": 3508,
  "\u2581zehaztu": 3509,
  "\u00bb": 3510,
  "24": 3511,
  "\u2581Joe": 3512,
  "\u2581pocos": 3513,
  "\u2581preguntas": 3514,
  "\u2581Hiri": 3515,
  "\u2581viento": 3516,
  "\u2581entender": 3517,
  "\u2581harreman": 3518,
  "\u2581actos": 3519,
  "\u2581ezberdinak": 3520,
  "tek": 3521,
  "\u2581Espera": 3522,
  "\u2581Paul": 3523,
  "\u2581parecer": 3524,
  "\u2581ziola": 3525,
  "\u2581preciso": 3526,
  "\u2581seguida": 3527,
  "40": 3528,
  "\u2581rural": 3529,
  "\u2581Jainkoak": 3530,
  "\u2581kalte": 3531,
  "\u2581tradici\u00f3n": 3532,
  "\u2581gobernu": 3533,
  "adas": 3534,
  "ondo": 3535,
  "\u2581Sir": 3536,
  "\u2581bana": 3537,
  "\u2581medidas": 3538,
  "\u2581Cristo": 3539,
  "\u2581Hara": 3540,
  "\u2581documento": 3541,
  "\u2581febrero": 3542,
  "\u2581lunes": 3543,
  "\u2581ejercicio": 3544,
  "\u2581eutsi": 3545,
  "\u2581Gau": 3546,
  "ntzi": 3547,
  "\u25812000": 3548,
  "\u2581Elur": 3549,
  "\u2581aurrez": 3550,
  "\u2581merkataritza": 3551,
  "\u2581bizia": 3552,
  "\u2581Hu": 3553,
  "\u2581arco": 3554,
  "\u2581\u00bb": 3555,
  "c\u00f3": 3556,
  "\u2581Derechos": 3557,
  "\u2581instituciones": 3558,
  "\u2581amak": 3559,
  "\u2581oin": 3560,
  "\u2581tipograf\u00eda": 3561,
  "\u2581ikuspegi": 3562,
  "\u2581rato": 3563,
  "\u2581niretzat": 3564,
  "\u2581ingl\u00e9s": 3565,
  "\u2581internacional": 3566,
  "\u2581encontrado": 3567,
  "UN": 3568,
  "istas": 3569,
  "\u2581itsaskor": 3570,
  "\u2581jota": 3571,
  "AL": 3572,
  "ien": 3573,
  "\u2581administrazio": 3574,
  "\u2581continuaci\u00f3n": 3575,
  "\u2581Jon": 3576,
  "\u2581Francisco": 3577,
  "\u2581Unidos": 3578,
  "\u2581felicidad": 3579,
  "\u2581herria": 3580,
  "\u2581hezkuntza": 3581,
  "\u2581kudeaketa": 3582,
  "\u2581Hizkuntza": 3583,
  "\u2581elemento": 3584,
  "\u2581nonbait": 3585,
  "\u2581Gobernu": 3586,
  "\u2581art\u00edculo": 3587,
  "cos": 3588,
  "\u2581doble": 3589,
  "\u2581llena": 3590,
  "\u2581moduko": 3591,
  "\u2581emanez": 3592,
  "\u2581or": 3593,
  "\u2581com": 3594,
  "\u2581escuchar": 3595,
  "\u2581ga": 3596,
  "\u2581barru": 3597,
  "\u2581ka": 3598,
  "\u2581Esku": 3599,
  "\u2581estatu": 3600,
  "\u2581jendeak": 3601,
  "\u2581oficina": 3602,
  "har": 3603,
  "\u2581bazuen": 3604,
  "\u2581normal": 3605,
  "\u2581ados": 3606,
  "\u2581muchacho": 3607,
  "\u2581Desarrollo": 3608,
  "\u2581Errege": 3609,
  "\u2581ikustera": 3610,
  "\u2581lu": 3611,
  "\u2581Z": 3612,
  "\u2581bezalaxe": 3613,
  "\u2581kultur": 3614,
  "\u2581volumen": 3615,
  "\u2581ju": 3616,
  "\u2581hautatu": 3617,
  "\u2581ohartu": 3618,
  "\u2581prestakuntza": 3619,
  "\u2581Hautatu": 3620,
  "\u2581dituena": 3621,
  "\u2581guztian": 3622,
  "cor": 3623,
  "pena": 3624,
  "\u2581Gra": 3625,
  "\u2581goi": 3626,
  "sin": 3627,
  "\u2581Memoria": 3628,
  "\u2581aprender": 3629,
  "ard": 3630,
  "\u2581sentir": 3631,
  "xka": 3632,
  "\u2581Nora": 3633,
  "\u2581museo": 3634,
  "\u2581archivos": 3635,
  "\u2581harekin": 3636,
  "28": 3637,
  "c\u00f3mo": 3638,
  "\u2581badut": 3639,
  "\u2581goiz": 3640,
  "\u2581nahiago": 3641,
  "\u2581lenguaje": 3642,
  "\u2581orokor": 3643,
  "\u2581pistola": 3644,
  "\u2581bidaia": 3645,
  "\u2581fundaci\u00f3n": 3646,
  "\u25816.": 3647,
  "\u2581arrisku": 3648,
  "\u2581tono": 3649,
  "23": 3650,
  "\u2581igualdad": 3651,
  ")]": 3652,
  "\u25812003": 3653,
  "\u2581jarrera": 3654,
  "raren": 3655,
  "\u2581interes": 3656,
  "\u2581aho": 3657,
  "\u2581empezar": 3658,
  "\u2581haiz": 3659,
  "\u2581Ai": 3660,
  "\u2581Pan": 3661,
  "\u2581Hego": 3662,
  "agoak": 3663,
  "ser": 3664,
  "\u2581producci\u00f3n": 3665,
  "\u2581fase": 3666,
  "\u2581garaian": 3667,
  "\u2581laguna": 3668,
  "\u2581partido": 3669,
  "\u2581lekuan": 3670,
  "\u2581zebilen": 3671,
  "\u2581gal": 3672,
  "lina": 3673,
  "\u2581gris": 3674,
  "\u2581lore": 3675,
  "cio": 3676,
  "van": 3677,
  "zabal": 3678,
  "\u2581bilatzen": 3679,
  "\u2581m\u00e9dico": 3680,
  "\u2581vac\u00edo": 3681,
  "\u2581chicos": 3682,
  "\u2581peor": 3683,
  "\u2581Ku": 3684,
  "\u2581joatea": 3685,
  "\u2581sortzeko": 3686,
  "\u2581vieja": 3687,
  "\u2581daukazu": 3688,
  "\u2581extra\u00f1o": 3689,
  "\u2581testu": 3690,
  "gel": 3691,
  "gin": 3692,
  "\u2581dik": 3693,
  "\u2581efectos": 3694,
  "\u2581\u00e1rboles": 3695,
  "pres": 3696,
  "gana": 3697,
  "\u2581Semana": 3698,
  "\u2581bakoitzeko": 3699,
  "\u2581hazi": 3700,
  "\u2581hitzaldia": 3701,
  "\u2581prop\u00f3sito": 3702,
  "\u2581Les": 3703,
  "\u2581daitekeen": 3704,
  "\u2581kanpoan": 3705,
  "\u2581objektu": 3706,
  "\u2581Sartu": 3707,
  "\u2581econ\u00f3mica": 3708,
  "\u2581materiales": 3709,
  "\u2581semejante": 3710,
  "ler": 3711,
  "\u2581gaitu": 3712,
  "\u2581alcanzar": 3713,
  "\u2581urriaren": 3714,
  "\u2581ordua": 3715,
  "\u2581se\u00f1orita": 3716,
  "\u2581bihotz": 3717,
  "\u2581Ad": 3718,
  "\u2581zitzaien": 3719,
  "\u2581soldadu": 3720,
  "\u2581Europea": 3721,
  "\u2581eskura": 3722,
  "\u2581vuelto": 3723,
  "\u2581zuzena": 3724,
  "\u2581landa": 3725,
  "\u258119:00": 3726,
  "\u2581p\u00fablicos": 3727,
  "pre": 3728,
  "\u2581fuente": 3729,
  "\u2581respeto": 3730,
  "\u2581Agur": 3731,
  "\u2581Udala": 3732,
  "\u2581espacios": 3733,
  "\u2581comenz\u00f3": 3734,
  "\u2581municipales": 3735,
  "\u2581loco": 3736,
  "\u2581espa\u00f1ol": 3737,
  "\u2581izugarri": 3738,
  "\u2581kutxa": 3739,
  "\u2581soldados": 3740,
  "sal": 3741,
  "\u2581atenienses": 3742,
  "\u2581egoki": 3743,
  "\u2581humanos": 3744,
  "\u2581Itxaron": 3745,
  "\u2581basura": 3746,
  "\u2581gorabehera": 3747,
  "02": 3748,
  "\u2581Kutxa": 3749,
  "\u2581comprar": 3750,
  "\u2581situado": 3751,
  "\u2581altuera": 3752,
  "\u2581bezalakoa": 3753,
  "\u2581hanka": 3754,
  "\u2581dabil": 3755,
  "\u2581estu": 3756,
  "\u2581gogoratzen": 3757,
  "\u2581teclas": 3758,
  "\u2581debemos": 3759,
  "\u2581Unibertsitatea": 3760,
  "Euskal": 3761,
  "\u2581ahalik": 3762,
  "\u2581aparte": 3763,
  "tt": 3764,
  "TO": 3765,
  "\u2581noticias": 3766,
  "\u2581ahala": 3767,
  "\u2581entidad": 3768,
  "\u2581\u00e1rea": 3769,
  "tru": 3770,
  "\u2581sonido": 3771,
  "\u2581t\u00edo": 3772,
  "09": 3773,
  "\u2581Ea": 3774,
  "\u2581azterketa": 3775,
  "\u2581piztu": 3776,
  "\u2581Gran": 3777,
  "\u2581ira": 3778,
  "sko": 3779,
  "\u2581Autonomia": 3780,
  "\u2581cita": 3781,
  "OR": 3782,
  "\u2581bitxi": 3783,
  "\u2581egoitza": 3784,
  "\u2581inferior": 3785,
  "\u2581DEL": 3786,
  "\u2581ho": 3787,
  "\u2581iniciativa": 3788,
  "\u2581mundua": 3789,
  "UR": 3790,
  "ala": 3791,
  "\u2581cambios": 3792,
  "\u2581fortuna": 3793,
  "\u2581propuesta": 3794,
  "\u2581zabalik": 3795,
  "erre": 3796,
  "\u2581desagertu": 3797,
  "\u2581elkarte": 3798,
  "\u2581proiektua": 3799,
  "\u2581zientzia": 3800,
  "zia": 3801,
  "\u2581caballero": 3802,
  "\u2581itxaron": 3803,
  "\u2581erraza": 3804,
  "\u2581\u00f3rdenes": 3805,
  "\u2581Nadie": 3806,
  "\u2581generales": 3807,
  "\u2581hortik": 3808,
  "\u2581itzuliko": 3809,
  "\u2581pasatu": 3810,
  "\u2581jornada": 3811,
  "\u2581propias": 3812,
  "\u2581Parece": 3813,
  "\u2581entrega": 3814,
  "\u2581malo": 3815,
  "\u2581auzo": 3816,
  "\u2581bilatu": 3817,
  "\u2581daki": 3818,
  "\u258120:00": 3819,
  "\u2581Gar": 3820,
  "\u2581Nork": 3821,
  "\u2581Nuestra": 3822,
  "\u2581banatu": 3823,
  "\u2581eskaintza": 3824,
  "\u2581premio": 3825,
  "\u2581Neska": 3826,
  "\u2581encontr\u00f3": 3827,
  "\u2581zoaz": 3828,
  "DI": 3829,
  "\u2581etortzen": 3830,
  "\u2581perro": 3831,
  "cas": 3832,
  "\u2581geroztik": 3833,
  "\u2581Ia": 3834,
  "\u2581celebra": 3835,
  "\u2581fitxategia": 3836,
  "\u2581go": 3837,
  "\u2581hist\u00f3rico": 3838,
  "nal": 3839,
  "\u2581aterako": 3840,
  "\u2581posici\u00f3n": 3841,
  "\u2581salvo": 3842,
  "\u2581disposici\u00f3n": 3843,
  "\u2581elkarren": 3844,
  "\u2581dagokienez": 3845,
  "berri": 3846,
  "\u2581Horretarako": 3847,
  "\u2581sorta": 3848,
  "Sabes": 3849,
  "\u2581osasun": 3850,
  "\u2581sede": 3851,
  "sion": 3852,
  "\u2581ce": 3853,
  "\u2581concurso": 3854,
  "\u2581joera": 3855,
  "Ni": 3856,
  "\u2581Estamos": 3857,
  "\u2581calor": 3858,
  "\u2581ezezaguna": 3859,
  "\u2581fa": 3860,
  "\u2581labur": 3861,
  "\u2581tama\u00f1o": 3862,
  "nde": 3863,
  "\u2581Am\u00e9rica": 3864,
  "\u2581cuerpos": 3865,
  "\u2581templo": 3866,
  "bar": 3867,
  "\u2581Comunidad": 3868,
  "\u2581bestera": 3869,
  "\u2581eraikin": 3870,
  "\u2581Kirol": 3871,
  "\u2581horretako": 3872,
  "\u2581Za": 3873,
  "\u2581recibido": 3874,
  "\u2581reuni\u00f3n": 3875,
  "goa": 3876,
  "\u258100:00-": 3877,
  "\u2581aditu": 3878,
  "\u2581mirando": 3879,
  "\u2581objetivos": 3880,
  "\u2581abierta": 3881,
  "\u2581mugitzen": 3882,
  "\u2581sinesten": 3883,
  "27": 3884,
  "\u00e1s": 3885,
  "\u2581badakit": 3886,
  "\u2581dezan": 3887,
  "\u2581geratuko": 3888,
  "ante": 3889,
  "\u2581original": 3890,
  "\u2581central": 3891,
  "\u2581eskubide": 3892,
  "\u2581gehienak": 3893,
  "\u2581obstante": 3894,
  "ete": 3895,
  "\u2581universal": 3896,
  "-4": 3897,
  "\u2581pelo": 3898,
  "\u2581pura": 3899,
  "sco": 3900,
  "\u2581amets": 3901,
  "\u2581nahian": 3902,
  "\u2581sentado": 3903,
  "\u2581viviendas": 3904,
  "\u2581Descargar": 3905,
  "\u2581exactamente": 3906,
  "\u2581horretara": 3907,
  "\u2581edan": 3908,
  "maila": 3909,
  "\u2581religi\u00f3n": 3910,
  "\u2581XVII": 3911,
  "\u2581gerta": 3912,
  "\u2581pagar": 3913,
  "ker": 3914,
  "\u2581baile": 3915,
  "\u2581condici\u00f3n": 3916,
  "\u2581erabiliz": 3917,
  "\u2581galtzen": 3918,
  "\u2581paper": 3919,
  "\u2581Os": 3920,
  "\u2581Ru": 3921,
  "\u2581ocurrido": 3922,
  "\u2581dokumentuak": 3923,
  "\u2581BI": 3924,
  "\u2581klik": 3925,
  "\u2581\u00e1rbol": 3926,
  "\u2581baitute": 3927,
  "\u2581eskaera": 3928,
  "\u2581modos": 3929,
  "\u2581acaba": 3930,
  "\u2581genituen": 3931,
  "\u2581animalia": 3932,
  "\u2581bidezko": 3933,
  "\u2581daukagu": 3934,
  "\u2581encontraba": 3935,
  "\u2581ezinezkoa": 3936,
  "\u2581vemos": 3937,
  "\u2581zabaltzen": 3938,
  "\u2581zuzendu": 3939,
  "\u25812012": 3940,
  "\u2581Pat": 3941,
  "\u2581ni\u00f1a": 3942,
  "sia": 3943,
  "\u2581Art": 3944,
  "\u2581Literatura": 3945,
  "\u2581daitezkeen": 3946,
  "\u2581lagunak": 3947,
  "\u2581printzipio": 3948,
  "hor": 3949,
  "\u2581conoce": 3950,
  "\u2581garatu": 3951,
  "\u2581semanas": 3952,
  "\u2581zelako": 3953,
  "\u2581hotz": 3954,
  "\u2581dezaten": 3955,
  "\u2581crees": 3956,
  "\u2581idazten": 3957,
  "\u2581ropa": 3958,
  "\u2581toma": 3959,
  "\u2581Ah": 3960,
  "\u2581conversaci\u00f3n": 3961,
  "\u2581segu\u00eda": 3962,
  "\u2581directamente": 3963,
  "\u2581punta": 3964,
  "\u2581luzea": 3965,
  "\u2581resoluci\u00f3n": 3966,
  "\u2581Aukera": 3967,
  "\u2581Diru": 3968,
  "\u2581balioa": 3969,
  "\u2581oferta": 3970,
  "mis": 3971,
  "\u2581aitak": 3972,
  "\u2581n": 3973,
  "\u2581Mundu": 3974,
  "\u2581daudela": 3975,
  "\u2581publikoa": 3976,
  "\u2581vaya": 3977,
  "\u2581nieve": 3978,
  "\u2581razones": 3979,
  "\u25812001": 3980,
  "ad": 3981,
  "\u2581Real": 3982,
  "\u2581fui": 3983,
  "\u2581sur": 3984,
  "ris": 3985,
  "\u2581propiedad": 3986,
  "\u2581Bilboko": 3987,
  "\u2581Catedral": 3988,
  "\u2581labios": 3989,
  "sos": 3990,
  "\u2581Lurralde": 3991,
  "\u2581XVIII": 3992,
  "\u2581giro": 3993,
  "\u2581tratar": 3994,
  "29": 3995,
  "rios": 3996,
  "\u2581Zuzendaritza": 3997,
  "\u2581jaten": 3998,
  "\u2581pensando": 3999,
  "\u2581M\u00e9xico": 4000,
  "\u2581cuello": 4001,
  "\u2581Festival": 4002,
  "He": 4003,
  "\u2581ob": 4004,
  "\u2581veinte": 4005,
  "\u2581arrakasta": 4006,
  "\u2581carrera": 4007,
  "RE": 4008,
  "\u2581altxatu": 4009,
  "\u2581dando": 4010,
  "\u2581edificios": 4011,
  "\u2581inicio": 4012,
  "ski": 4013,
  "\u2581hiriko": 4014,
  "!...": 4015,
  "\u2581golpe": 4016,
  "iera": 4017,
  "\u2581muchacha": 4018,
  "RO": 4019,
  "\u2581levant\u00f3": 4020,
  "\u2581#": 4021,
  "\u2581Harry": 4022,
  "01": 4023,
  "line": 4024,
  "\u2581Ira": 4025,
  "\u2581antolatzen": 4026,
  "\u2581hiria": 4027,
  "\u2581ambas": 4028,
  "\u2581comienzo": 4029,
  "\u2581erabiliko": 4030,
  "\u2581kartak": 4031,
  "\u2581maiztasuna": 4032,
  "\u2581Honek": 4033,
  "\u2581hechos": 4034,
  "\u2581lleno": 4035,
  "\u2581traje": 4036,
  "\u2581conexi\u00f3n": 4037,
  "\u2581Familia": 4038,
  "\u2581llev\u00f3": 4039,
  "\u2581Mor": 4040,
  "\u2581costumbres": 4041,
  "\u2581makina": 4042,
  "\u2581sozial": 4043,
  "\u2581v\u00eda": 4044,
  "\u2581carne": 4045,
  "\u2581disfrutar": 4046,
  "\u2581existen": 4047,
  "\u2581recordar": 4048,
  "\u2581Tomek": 4049,
  "\u2581eskuratu": 4050,
  "\u2581martxan": 4051,
  "\u2581velocidad": 4052,
  "TI": 4053,
  "\u2581Gesti\u00f3n": 4054,
  "\u2581Hona": 4055,
  "\u2581bateria": 4056,
  "\u2581legeak": 4057,
  "OS": 4058,
  "\u2581Aro": 4059,
  "\u2581Ziur": 4060,
  "\u2581hielo": 4061,
  "\u2581liteke": 4062,
  "ano": 4063,
  "\u2581F\u00e1brica": 4064,
  "\u2581prozesu": 4065,
  "\u2581Sol": 4066,
  "\u2581Zerbitzu": 4067,
  "\u2581nazioarteko": 4068,
  "\u2581arrazoia": 4069,
  "\u2581egunero": 4070,
  "uri": 4071,
  "\u2581Humanos": 4072,
  "\u2581azkenik": 4073,
  "\u2581duelako": 4074,
  "\u2581duro": 4075,
  "\u2581riesgo": 4076,
  "\u2581se\u00f1al": 4077,
  "\u2581tienda": 4078,
  "\u2581uztea": 4079,
  "\u2581protecci\u00f3n": 4080,
  "stro": 4081,
  "tico": 4082,
  "\u2581d\u00f3lares": 4083,
  "\u2581har\u00eda": 4084,
  "\u2581Tormenta": 4085,
  "\u2581jarduerak": 4086,
  "ON": 4087,
  "\u2581arin": 4088,
  "\u2581zenbaki": 4089,
  "\u2581Asimismo": 4090,
  "\u2581iban": 4091,
  "val": 4092,
  "\u2581ahalegin": 4093,
  "\u2581luzatu": 4094,
  "\u2581topo": 4095,
  "\u2581zuzendari": 4096,
  "nt": 4097,
  "\u2581masa": 4098,
  "\u2581popular": 4099,
  "X": 4100,
  "\u2581belleza": 4101,
  "\u2581jakingo": 4102,
  "\u2581reserva": 4103,
  "xo": 4104,
  "\u2581Alt": 4105,
  "\u2581harro": 4106,
  "\u2581laguntzeko": 4107,
  "\u2581Pablo": 4108,
  "\u2581naturales": 4109,
  "han": 4110,
  "\u2581erlijio": 4111,
  "\u2581tecla": 4112,
  "\u2581burutu": 4113,
  "\u2581bultzatu": 4114,
  "\u2581consiste": 4115,
  "\u2581gaitz": 4116,
  "11": 4117,
  "\u2581gogoeta": 4118,
  "\u2581kopuru": 4119,
  "\u2581Instituto": 4120,
  "\u2581On": 4121,
  "\u2581hautsi": 4122,
  "zkoa": 4123,
  "\u2581Gal": 4124,
  "\u2581Merkataritza": 4125,
  "\u2581nazio": 4126,
  "\u2581programas": 4127,
  "\u2581realiza": 4128,
  "\u2581txikiak": 4129,
  "\u2581ba\u00f1o": 4130,
  "\u2581sonrisa": 4131,
  "tuz": 4132,
  "--": 4133,
  "Hori": 4134,
  "\u2581Aires": 4135,
  "\u2581fitxategi": 4136,
  "\u2581Can": 4137,
  "\u2581aurkezteko": 4138,
  "\u2581paisaia": 4139,
  "\u2581habitantes": 4140,
  "\u2581pase": 4141,
  "\u2581darle": 4142,
  "em": 4143,
  "\u2581informe": 4144,
  "\u2581sor": 4145,
  "\u2581(%": 4146,
  "\u2581herriaren": 4147,
  "\u2581m\u00e1quina": 4148,
  "\u2581Antes": 4149,
  "\u2581bisita": 4150,
  "\u2581familiar": 4151,
  "\u2581beharrezko": 4152,
  "\u2581clave": 4153,
  "rengana": 4154,
  "\u2581Seg\u00fan": 4155,
  "\u2581decisi\u00f3n": 4156,
  "\u2581beltza": 4157,
  "\u2581entradas": 4158,
  "\u2581nolabait": 4159,
  "\u2581zenbakia": 4160,
  "mendi": 4161,
  "\u2581VI": 4162,
  "\u2581tradizio": 4163,
  "\u2581euskaraz": 4164,
  "\u2581Leku": 4165,
  "\u2581Nacional": 4166,
  "\u2581gogorra": 4167,
  "\u2581zeinak": 4168,
  "\u2581lizentziatua": 4169,
  "\u2581Jarduera": 4170,
  "\u2581aztertzen": 4171,
  "\u2581peso": 4172,
  "tzu": 4173,
  "\u2581eztabaida": 4174,
  "\u2581t\u00e9rminos": 4175,
  "Bi": 4176,
  "\u2581espect\u00e1culo": 4177,
  "\u2581superficie": 4178,
  "\u2581armada": 4179,
  "\u2581evidente": 4180,
  "op": 4181,
  "\u2581asmatu": 4182,
  "\u2581aurki": 4183,
  "\u2581hogei": 4184,
  "\u2581vuelve": 4185,
  "\u2581zeharo": 4186,
  "\u2581jokatzen": 4187,
  "\u2581vive": 4188,
  "\u2581Uni\u00f3n": 4189,
  "exclam\u00f3": 4190,
  "\u2581Jack": 4191,
  "\u2581duenez": 4192,
  "\u2581selecci\u00f3n": 4193,
  "\u2581sortutako": 4194,
  "sol": 4195,
  "\u2581Cal": 4196,
  "\u2581Fe": 4197,
  "\u2581Unidad": 4198,
  "\u2581kalean": 4199,
  "\u2581Horren": 4200,
  "\u2581aldea": 4201,
  "\u2581xede": 4202,
  "31": 4203,
  "\u2581Italia": 4204,
  "\u2581Ser": 4205,
  "17": 4206,
  "\u2581Tan": 4207,
  "gos": 4208,
  "let": 4209,
  "\u2581Cultural": 4210,
  "\u2581Emakume": 4211,
  "\u2581anteriores": 4212,
  "\u2581intenci\u00f3n": 4213,
  "\u258170": 4214,
  "\u2581Je": 4215,
  "\u2581batalla": 4216,
  "\u2581enemigo": 4217,
  "\u2581puente": 4218,
  "\u2581suya": 4219,
  "\u2581costa": 4220,
  "\u2581ninguno": 4221,
  "\u2581hayan": 4222,
  "\u2581Estudios": 4223,
  "\u2581aurkezten": 4224,
  "\u2581debo": 4225,
  "\u2581heinean": 4226,
  "\u2581jasoko": 4227,
  "\u2581pol\u00edticas": 4228,
  "\u2581prensa": 4229,
  "\u2581atzeko": 4230,
  "\u2581mezu": 4231,
  "\u2581gra": 4232,
  "\u2581lotuta": 4233,
  "\u2581ganar": 4234,
  "\u2581ospatuko": 4235,
  "\u2581dagoenean": 4236,
  "\u2581norbaitek": 4237,
  "\u2581pertsonak": 4238,
  "\u2581Buru": 4239,
  "\u2581langile": 4240,
  "\u2581piso": 4241,
  "\u2581aparece": 4242,
  "\u2581dizuet": 4243,
  "\u2581ezkondu": 4244,
  "\u2581garen": 4245,
  "ben": 4246,
  "\u2581Mart\u00edn": 4247,
  "\u2581direlako": 4248,
  "\u2581vestido": 4249,
  "dora": 4250,
  "riak": 4251,
  "tzerakoan": 4252,
  "\u2581car": 4253,
  "-1": 4254,
  "tipo": 4255,
  "\u2581hire": 4256,
  "\u2581izendatu": 4257,
  "\u2581eguneko": 4258,
  "ngo": 4259,
  "\u2581aspectos": 4260,
  "\u2581XII": 4261,
  "\u2581circunstancias": 4262,
  "\u2581emakumeak": 4263,
  "\u2581mendean": 4264,
  "\u2581Agenda": 4265,
  "\u2581Dantza": 4266,
  "\u2581Estas": 4267,
  "\u2581deus": 4268,
  "\u2581Ikusten": 4269,
  "\u2581Ipar": 4270,
  "\u2581ra": 4271,
  "\u2581Hurrengo": 4272,
  "\u2581comercio": 4273,
  "\u2581genero": 4274,
  "\u2581Asociaci\u00f3n": 4275,
  "\u2581cari\u00f1o": 4276,
  "\u2581zutik": 4277,
  "\u2581200": 4278,
  "\u2581Asko": 4279,
  "\u2581Lasai": 4280,
  "\u2581arku": 4281,
  "\u2581modua": 4282,
  "In": 4283,
  "\u2581bereko": 4284,
  "\u2581denda": 4285,
  "\u2581enviar": 4286,
  "\u2581paleta": 4287,
  "\u2581labor": 4288,
  "am": 4289,
  "\u2581absoluto": 4290,
  "\u2581aitaren": 4291,
  "\u2581antiguo": 4292,
  "\u2581paisaje": 4293,
  "\u2581ekimen": 4294,
  "\u2581kontatzen": 4295,
  "\u2581urtetik": 4296,
  "\u2581geldi": 4297,
  "\u2581preso": 4298,
  "\u2581corriente": 4299,
  "\u2581gorputza": 4300,
  "\u2581posta": 4301,
  "\u2581quiera": 4302,
  "\u2581bilera": 4303,
  "\u2581fiestas": 4304,
  "\u2581influencia": 4305,
  "\u2581lluvia": 4306,
  "\u2581acaso": 4307,
  "\u2581bosque": 4308,
  "\u2581campos": 4309,
  "\u2581don": 4310,
  "\u2581kontzertua": 4311,
  "\u2581zieten": 4312,
  "\u258135": 4313,
  "\u2581nazazu": 4314,
  "Para": 4315,
  "\u2581@": 4316,
  "\u2581anti": 4317,
  "\u2581arlo": 4318,
  "\u2581fatxada": 4319,
  "\u2581fo": 4320,
  "\u2581impresi\u00f3n": 4321,
  "\u2581vecinos": 4322,
  "encia": 4323,
  "\u2581baso": 4324,
  "\u2581hutsik": 4325,
  "\u2581Ireki": 4326,
  "\u2581autoridad": 4327,
  "\u2581urtarrila": 4328,
  "\u2581\u00fanicamente": 4329,
  "peko": 4330,
  "txoa": 4331,
  "\u2581esanez": 4332,
  "\u2581kaka": 4333,
  "\u2581zeina": 4334,
  "retik": 4335,
  "\u2581antzera": 4336,
  "\u2581confianza": 4337,
  "\u2581maiz": 4338,
  "\u2581didate": 4339,
  "\u2581papelera": 4340,
  "\u2581sentimiento": 4341,
  "\u2581Kim": 4342,
  "\u2581goiko": 4343,
  "\u2581Ci": 4344,
  "\u2581polizia": 4345,
  "\u2581Espero": 4346,
  "\u2581dispuesto": 4347,
  "\u2581mejorar": 4348,
  "LE": 4349,
  "\u2581David": 4350,
  "\u2581izenean": 4351,
  "\u2581comprender": 4352,
  "\u2581jakitea": 4353,
  "\u2581llamada": 4354,
  "\u2581unibertsitate": 4355,
  "...?": 4356,
  "\u2581nabarmentzen": 4357,
  "\u2581ardo": 4358,
  "\u2581bereizi": 4359,
  "\u2581buruaren": 4360,
  "\u2581caf\u00e9": 4361,
  "\u2581agente": 4362,
  "REN": 4363,
  "\u2581blanca": 4364,
  "\u2581ekainaren": 4365,
  "\u2581peque\u00f1as": 4366,
  "\u2581tercera": 4367,
  "\u2581Bur": 4368,
  "\u2581Eu": 4369,
  "\u2581horiei": 4370,
  "\u2581pensaba": 4371,
  "T\u00fa": 4372,
  "oi": 4373,
  "\u2581barik": 4374,
  "\u2581dices": 4375,
  "\u2581bestetik": 4376,
  "\u2581Aizu": 4377,
  "\u2581Barcelona": 4378,
  "\u2581esperando": 4379,
  "\u2581pentsamendu": 4380,
  "\u2581salto": 4381,
  "\u2581Min": 4382,
  "\u2581juegos": 4383,
  "Hola": 4384,
  "bus": 4385,
  "\u00e1is": 4386,
  "\u2581harrizko": 4387,
  "\u2581pasando": 4388,
  "\u2581zirenean": 4389,
  "arra": 4390,
  "\u2581construir": 4391,
  "\u2581ipini": 4392,
  "\u2581pretende": 4393,
  "iendo": 4394,
  "torio": 4395,
  "\u2581agerian": 4396,
  "\u2581segura": 4397,
  "\u2581trabajando": 4398,
  "\u2581kar": 4399,
  "tero": 4400,
  "\u2581eskualde": 4401,
  "\u2581jarrita": 4402,
  "tzako": 4403,
  "\u2581entiendo": 4404,
  "\u2581hilko": 4405,
  "\u2581buscando": 4406,
  "\u2581irakurtzen": 4407,
  "\u2581civil": 4408,
  "\u2581iragan": 4409,
  "kide": 4410,
  "wa": 4411,
  "\u2581--": 4412,
  "\u2581bazter": 4413,
  "\u2581landare": 4414,
  "garriak": 4415,
  "\u2581invierno": 4416,
  "\u2581prisa": 4417,
  "\u2581trataba": 4418,
  "Q": 4419,
  "\u2581agradable": 4420,
  "\u2581compra": 4421,
  "\u2581bilduma": 4422,
  "\u2581zaharrak": 4423,
  "\u2581antza": 4424,
  "\u2581desea": 4425,
  "\u2581urteetan": 4426,
  "\u2581zaigu": 4427,
  "nie": 4428,
  "\u2581sucede": 4429,
  "\u2581antzinako": 4430,
  "\u2581isilik": 4431,
  "\u2581Gai": 4432,
  "\u2581dudana": 4433,
  "\u2581bestalde": 4434,
  "\u2581t\u00e9rmino": 4435,
  "\u2581nizun": 4436,
  "\u2581berezko": 4437,
  "\u2581indarrean": 4438,
  "\u2581abri\u00f3": 4439,
  "\u2581can": 4440,
  "\u2581ejecuci\u00f3n": 4441,
  "\u2581gonbidatu": 4442,
  "\u2581palo": 4443,
  "\u2581herrian": 4444,
  "\u2581secreto": 4445,
  "\u2581Todas": 4446,
  "\u2581egoteko": 4447,
  "\u2581erabiltzea": 4448,
  "\u2581predeterminada": 4449,
  "\u2581buruaz": 4450,
  "Cu\u00e1l": 4451,
  "ian": 4452,
  "kada": 4453,
  "\u2581CD": 4454,
  "\u2581Gerra": 4455,
  "\u2581aipatzen": 4456,
  "\u2581campa\u00f1a": 4457,
  "\u2581daukan": 4458,
  "\u2581hizketan": 4459,
  "\u2581tasa": 4460,
  "\u2581componente": 4461,
  "\u2581isil": 4462,
  "\u2581palacio": 4463,
  "\u2581prestatzen": 4464,
  "tarrak": 4465,
  "\u2581Aut\u00f3noma": 4466,
  "\u2581Errorea": 4467,
  "\u2581Euskera": 4468,
  "\u2581Halaber": 4469,
  "\u2581Licenciado": 4470,
  "\u2581familias": 4471,
  "\u2581uzteko": 4472,
  "\u2581vale": 4473,
  "\u2581establecimiento": 4474,
  "\u2581responsabilidad": 4475,
  "\u2581Ezer": 4476,
  "\u2581Oye": 4477,
  "\u2581doce": 4478,
  "\u2581lurra": 4479,
  "lle": 4480,
  "\u2581Nekazaritza": 4481,
  "\u2581The": 4482,
  "\u2581ekonomiko": 4483,
  "\u2581sinatu": 4484,
  "\u2581zulo": 4485,
  "\u2581Inoiz": 4486,
  "\u2581piezas": 4487,
  "\u2581Sar": 4488,
  "\u2581dioten": 4489,
  "\u2581enorme": 4490,
  "\u2581jard\u00edn": 4491,
  "\u2581sinetsi": 4492,
  "duna": 4493,
  "zka": 4494,
  "\u2581All\u00ed": 4495,
  "\u2581hambre": 4496,
  "\u2581Jauna": 4497,
  "\u2581Teatro": 4498,
  "26": 4499,
  "mail": 4500,
  "tela": 4501,
  "\u2581askok": 4502,
  "\u2581consumo": 4503,
  "\u2581denik": 4504,
  "\u2581saio": 4505,
  "000": 4506,
  "tel": 4507,
  "\u2581Muestra": 4508,
  "\u2581doktorea": 4509,
  "\u2581guardar": 4510,
  "\u2581juventud": 4511,
  "\u2581necesito": 4512,
  "\u2581saben": 4513,
  "\u2581tantas": 4514,
  "\u2581Estatubatuarra": 4515,
  "\u2581ayer": 4516,
  "nto": 4517,
  "\u2581adin": 4518,
  "\u2581cumplir": 4519,
  "\u2581cursos": 4520,
  "\u2581taberna": 4521,
  "PDF": 4522,
  "\u2581Par": 4523,
  "\u2581entr\u00f3": 4524,
  "\u2581gainditu": 4525,
  "\u2581PUZaren": 4526,
  "\u2581acceder": 4527,
  "\u2581ciudadan\u00eda": 4528,
  "\u2581duenak": 4529,
  "\u2581considera": 4530,
  "\u2581cu\u00e1l": 4531,
  "\u2581poeta": 4532,
  "\u2581seres": 4533,
  "\u2581Jesus": 4534,
  "\u2581nora": 4535,
  "\u2581sentimendu": 4536,
  "gua": 4537,
  "vin": 4538,
  "\u2581Tipo": 4539,
  "\u2581Tri": 4540,
  "\u2581echar": 4541,
  "\u2581gelan": 4542,
  "\u2581ideiak": 4543,
  "\u2581aldez": 4544,
  "\u2581Ce": 4545,
  "\u2581Fo": 4546,
  "\u2581alferrik": 4547,
  "\u2581Ikus": 4548,
  "\u2581presentado": 4549,
  "\u2581sartuko": 4550,
  "\u2581soil": 4551,
  "\u2581hermanos": 4552,
  "\u2581hermosa": 4553,
  "\u2581legez": 4554,
  "\u2581natura": 4555,
  "toria": 4556,
  "\u2581alrededores": 4557,
  "\u2581da\u00f1o": 4558,
  "\u2581mor": 4559,
  "\u2581kezkatu": 4560,
  "\u2581ikusita": 4561,
  "\u2581itxita": 4562,
  "etariko": 4563,
  "\u2581celebraci\u00f3n": 4564,
  "\u2581hartuz": 4565,
  "\u2581realizaci\u00f3n": 4566,
  "ot": 4567,
  "\u2581taller": 4568,
  "\u2581urtez": 4569,
  "\u2581eten": 4570,
  "\u2581responsable": 4571,
  "\u2581sare": 4572,
  "\u2581uztailaren": 4573,
  "\u2581Sch": 4574,
  "\u2581decirle": 4575,
  "\u2581flores": 4576,
  "\u2581visi\u00f3n": 4577,
  "zki": 4578,
  "\u2581Ed": 4579,
  "\u2581aitortu": 4580,
  "sis": 4581,
  "\u2581amo": 4582,
  "\u2581paseo": 4583,
  "\u2581sistemas": 4584,
  "\u2581corte": 4585,
  "\u2581ezkontza": 4586,
  "\u2581ibai": 4587,
  "\u2581lagunduko": 4588,
  "\u2581nueve": 4589,
  "\u2581Nafarroa": 4590,
  "\u2581for": 4591,
  "\u2581nolako": 4592,
  "\u2581aurkeztuko": 4593,
  "\u2581neuk": 4594,
  "\u2581queremos": 4595,
  "\u2581sabemos": 4596,
  "\u2581movimientos": 4597,
  "\u2581quisiera": 4598,
  "Di": 4599,
  "\u2581zabalera": 4600,
  "\u2581zuelako": 4601,
  "Zergatik": 4602,
  "titu": 4603,
  "\u2581halaber": 4604,
  "\u2581Documentos": 4605,
  "\u2581ezagutzeko": 4606,
  "\u25812002": 4607,
  "\u2581Her": 4608,
  "\u2581asuntos": 4609,
  "\u2581esperaba": 4610,
  "\u2581saldu": 4611,
  "\u2581usuarios": 4612,
  "\u2581zidaten": 4613,
  "pila": 4614,
  "\u2581extra\u00f1a": 4615,
  "\u2581caja": 4616,
  "\u2581portada": 4617,
  "\u2581publicaci\u00f3n": 4618,
  "\u2581sombrero": 4619,
  "gun": 4620,
  "\u2581Toma": 4621,
  "\u2581caballos": 4622,
  "\u2581zaldun": 4623,
  "ismoa": 4624,
  "\u2581enfermedad": 4625,
  "\u2581sortzea": 4626,
  "t\u00ed": 4627,
  "\u2581aske": 4628,
  "\u2581tantos": 4629,
  "\u2581za": 4630,
  "\u2581zuretzat": 4631,
  "ier": 4632,
  "\u2581Mus": 4633,
  "\u2581agosto": 4634,
  "\u2581banaketa": 4635,
  "\u2581pr\u00f3xima": 4636,
  "egin": 4637,
  "lio": 4638,
  "\u2581Ingenier\u00eda": 4639,
  "\u2581maiatzaren": 4640,
  "\u2581Red": 4641,
  "gandik": 4642,
  "\u2581Ingurumen": 4643,
  "\u2581Sala": 4644,
  "\u2581arazoak": 4645,
  "\u2581jantzita": 4646,
  "\u2581piel": 4647,
  "\u00edn": 4648,
  "\u2581ekonomia": 4649,
  "\u2581existitzen": 4650,
  "\u2581pod\u00edan": 4651,
  "\u2581socios": 4652,
  "\u2581subir": 4653,
  "\u2581tendr\u00eda": 4654,
  "illo": 4655,
  "\u2581plantas": 4656,
  "tsi": 4657,
  "\u2581Paz": 4658,
  "\u2581Vascos": 4659,
  "\u2581abundante": 4660,
  "\u2581mejora": 4661,
  "\u2581conozco": 4662,
  "\u2581soinu": 4663,
  "leku": 4664,
  "\u2581garapen": 4665,
  "\u2581gogoko": 4666,
  "razi": 4667,
  "\u2581Kar": 4668,
  "\u2581landu": 4669,
  "\u2581Elizabeth": 4670,
  "\u2581lenguas": 4671,
  "ner": 4672,
  "\u2581beldurra": 4673,
  "eo": 4674,
  "zale": 4675,
  "\u2581asmoz": 4676,
  "\u2581maitasuna": 4677,
  "\u2581ekarriko": 4678,
  "\u2581tarte": 4679,
  "\u2581Kendu": 4680,
  "\u2581consiguiente": 4681,
  "\u2581extremo": 4682,
  "\u2581profesionales": 4683,
  "\u2581p\u00fablicas": 4684,
  "koan": 4685,
  "\u2581pared": 4686,
  "\u2581\u00e1reas": 4687,
  "\u00e1bamos": 4688,
  "\u2581Bihar": 4689,
  "\u2581askatu": 4690,
  "\u2581b\u00fasqueda": 4691,
  "\u2581botatzen": 4692,
  "d\u00eda": 4693,
  "\u2581haize": 4694,
  "\u2581Zatoz": 4695,
  "\u2581representa": 4696,
  "\u2581ventanas": 4697,
  "\u2581Landa": 4698,
  "\u2581er": 4699,
  "\u2581liburua": 4700,
  "\u2581verdadera": 4701,
  "lea": 4702,
  "\u2581Jainko": 4703,
  "\u2581uneko": 4704,
  "Bizkaia": 4705,
  "\u2581reino": 4706,
  "/11": 4707,
  "\u2581bikain": 4708,
  "\u2581charla": 4709,
  "\u2581funciones": 4710,
  "cri": 4711,
  "kur": 4712,
  "\u2581sendo": 4713,
  "\u2581ofrecer": 4714,
  "\u2581genuke": 4715,
  "pul": 4716,
  "\u2581ikasten": 4717,
  "\u2581primeras": 4718,
  "\u2581sartzea": 4719,
  "respondi\u00f3": 4720,
  "tica": 4721,
  "\u2581dedos": 4722,
  "\u2581pensamientos": 4723,
  "engan": 4724,
  "\u2581ocasiones": 4725,
  "\u2581telebista": 4726,
  "\u2581vascas": 4727,
  "\u2581Albisteak": 4728,
  "\u2581Debe": 4729,
  "\u2581fundamental": 4730,
  "Bueno": 4731,
  "\u2581cha": 4732,
  "\u2581denok": 4733,
  "\u2581hablaba": 4734,
  "\u2581nabarmen": 4735,
  "ld": 4736,
  "\u2581Padre": 4737,
  "\u2581filosof\u00eda": 4738,
  "\u2581hacerse": 4739,
  "\u2581veh\u00edculos": 4740,
  "llo": 4741,
  "\u2581Sociedad": 4742,
  "\u2581Usar": 4743,
  "\u2581gorria": 4744,
  "\u2581reloj": 4745,
  "entzia": 4746,
  "\u2581Maite": 4747,
  "\u2581irailaren": 4748,
  "\u2581lortuko": 4749,
  "tada": 4750,
  "\u2581baietz": 4751,
  "\u2581basta": 4752,
  "\u2581galdetzen": 4753,
  "una": 4754,
  "\u2581egiazko": 4755,
  "\u2581gabea": 4756,
  "\u2581gehitu": 4757,
  "\u2581inmediato": 4758,
  "\u2581terminar": 4759,
  "engandik": 4760,
  "mes": 4761,
  "\u2581bizitzan": 4762,
  "\u2581ki": 4763,
  "\u2581urrats": 4764,
  "\u2581urre": 4765,
  "70": 4766,
  "\u2581alcalde": 4767,
  "\u2581diet": 4768,
  "\u2581klase": 4769,
  "\u2581moztu": 4770,
  "\u2581Herrian": 4771,
  "\u2581Inork": 4772,
  "\u2581ekintzak": 4773,
  "\u2581simplemente": 4774,
  "\u2581ves": 4775,
  "ologia": 4776,
  "\u25817.": 4777,
  "\u2581Aste": 4778,
  "\\": 4779,
  "dena": 4780,
  "gor": 4781,
  "\u2581Adi\u00f3s": 4782,
  "\u2581deber\u00e1n": 4783,
  "\u2581desconocido": 4784,
  "\u2581documentaci\u00f3n": 4785,
  "\u2581aritzen": 4786,
  "\u2581muertos": 4787,
  "\u2581Jakina": 4788,
  "\u2581lados": 4789,
  "\u2581lotu": 4790,
  "\u2581tocar": 4791,
  "\u2581Kontu": 4792,
  "ldi": 4793,
  "Puedo": 4794,
  "dak": 4795,
  "\u2581har\u00e9": 4796,
  "ci\u00f3": 4797,
  "\u2581ofrecer\u00e1": 4798,
  "\u2581san": 4799,
  "\u2581tuviera": 4800,
  "\u2581zuria": 4801,
  "\u2581Azkenean": 4802,
  "\u2581Denak": 4803,
  "\u2581Norte": 4804,
  "\u2581argitaratutako": 4805,
  "\u2581venta": 4806,
  "\u2581Biblioteca": 4807,
  "\u2581dura": 4808,
  "\u2581edukitzea": 4809,
  "\u2581eskuan": 4810,
  "\u2581gira": 4811,
  "LA": 4812,
  "\u2581ciclo": 4813,
  "\u2581coger": 4814,
  "\u2581Saint": 4815,
  "\u2581egokitu": 4816,
  "\u2581ostera": 4817,
  "60": 4818,
  "\u2581babes": 4819,
  "\u2581danza": 4820,
  "\u2581hamabi": 4821,
  "\u2581osoko": 4822,
  "\u2581barnean": 4823,
  "\u2581biblioteca": 4824,
  "\u2581lankidetza": 4825,
  "ira": 4826,
  "\u2581ber": 4827,
  "\u2581sakon": 4828,
  "\u2581v": 4829,
  "ph": 4830,
  "\u2581Henry": 4831,
  "\u2581euskaldun": 4832,
  "garren": 4833,
  "\u2581actuaciones": 4834,
  "\u2581azal": 4835,
  "\u2581contenidos": 4836,
  "\u2581eska": 4837,
  "\u2581delarik": 4838,
  "\u2581Bizi": 4839,
  "\u2581ermita": 4840,
  "\u2581izatera": 4841,
  "\u2581participantes": 4842,
  "\u2581Pasa": 4843,
  "\u2581Udalaren": 4844,
  "\u2581Zuri": 4845,
  "\u2581dar\u00e1": 4846,
  "\u2581orri": 4847,
  "\u2581refiere": 4848,
  "\u2581Rey": 4849,
  "\u2581lotzen": 4850,
  "dera": 4851,
  "gia": 4852,
  "\u2581cien": 4853,
  "\u2581periodo": 4854,
  "\u2581teknologia": 4855,
  "\u2581ayudar": 4856,
  "\u2581bizkor": 4857,
  "'.": 4858,
  "\u2581bio": 4859,
  "\u2581sombra": 4860,
  "lde": 4861,
  "\u2581culturales": 4862,
  "\u2581Decreto": 4863,
  "\u2581Stephen": 4864,
  "\u2581arropa": 4865,
  "\u2581matrimonio": 4866,
  "\u2581silla": 4867,
  "\u2581jainko": 4868,
  "\u2581komun": 4869,
  "\u2581pisu": 4870,
  "\u2581zorrotz": 4871,
  "gorri": 4872,
  "\u2581Jakin": 4873,
  "\u2581Vista": 4874,
  "\u2581jueves": 4875,
  "\u2581t\u00eda": 4876,
  "\u2581imp": 4877,
  "\u2581visitar": 4878,
  "\u2581zama": 4879,
  "\u25811.-": 4880,
  "\u2581erantsi": 4881,
  "\u2581luna": 4882,
  "\u2581mutiko": 4883,
  "\u2581oscuridad": 4884,
  "Hay": 4885,
  "\u2581Bildu": 4886,
  "\u2581S\u00d3C": 4887,
  "\u2581arazoa": 4888,
  "\u2581causas": 4889,
  "\u2581ezein": 4890,
  "\u2581hubieran": 4891,
  "\u2581ordezkari": 4892,
  "MA": 4893,
  "by": 4894,
  "\u2581harremanetan": 4895,
  "\u2581pol\u00edtico": 4896,
  "\u2581ditudan": 4897,
  "\u00e9is": 4898,
  "\u2581Che": 4899,
  "\u2581je": 4900,
  "\u2581sensaci\u00f3n": 4901,
  "\u2581estaci\u00f3n": 4902,
  "\u2581eusten": 4903,
  "rengatik": 4904,
  "sor": 4905,
  "\u2581Fu": 4906,
  "\u2581pecho": 4907,
  "\u2581vuestra": 4908,
  "\u2581gogoratu": 4909,
  "Co": 4910,
  "engana": 4911,
  "\u2581Eraman": 4912,
  "\u2581constituye": 4913,
  "\u2581proposamena": 4914,
  "\u2581teniendo": 4915,
  "\u2581Est\u00e1s": 4916,
  "\u2581Haur": 4917,
  "\u2581basa": 4918,
  "\u2581llevado": 4919,
  "\u2581sujeto": 4920,
  "iak": 4921,
  "tarren": 4922,
  "\u2581Arabako": 4923,
  "\u2581babestu": 4924,
  "\u2581berrikuntza": 4925,
  "\u2581Miss": 4926,
  "\u2581marca": 4927,
  "\u25818.": 4928,
  "\u2581Manuel": 4929,
  "\u2581turismo": 4930,
  "\u2581Oro": 4931,
  "\u2581asociaciones": 4932,
  "\u2581baitziren": 4933,
  "\u2581jaunaren": 4934,
  "\u2581kolorearen": 4935,
  "\u2581KDE": 4936,
  "\u2581Lista": 4937,
  "\u2581asmo": 4938,
  "\u2581habitaciones": 4939,
  "\u2581observar": 4940,
  "\u2581enemigos": 4941,
  "\u2581guztietako": 4942,
  "\u2581motivos": 4943,
  "\u2581particulares": 4944,
  "\u2581banu": 4945,
  "\u2581gaueko": 4946,
  "\u2581plataforma": 4947,
  "03": 4948,
  "\u2581Agiriak": 4949,
  "\u2581eginiko": 4950,
  "DE": 4951,
  "\u2581Cine": 4952,
  "\u2581conoc\u00eda": 4953,
  "\u2581estuviera": 4954,
  "\u2581heltzen": 4955,
  "\u2581r\u00e1pidamente": 4956,
  "\u2581(1": 4957,
  "\u2581adi": 4958,
  "\u2581tendr\u00e1n": 4959,
  "\u2581Eman": 4960,
  "\u2581ahotsa": 4961,
  "\u2581behartu": 4962,
  "\u2581escritorio": 4963,
  "\u2581ezkutatu": 4964,
  "\u2581l": 4965,
  "\u2581localidad": 4966,
  "\u2581tomado": 4967,
  "om": 4968,
  "tion": 4969,
  "tis": 4970,
  "\u2581bazara": 4971,
  "\u2581errealitate": 4972,
  "\u2581gentes": 4973,
  "\u2581per\u00edodo": 4974,
  "katzen": 4975,
  "\u2581mina": 4976,
  "\u2581pribatu": 4977,
  "\u2581terreno": 4978,
  "\u2581zinema": 4979,
  "\u2581filma": 4980,
  "\u2581goizeko": 4981,
  "r\u00f3": 4982,
  "sca": 4983,
  "\u2581eguneroko": 4984,
  "\u2581tom\u00f3": 4985,
  "\u2581gazteak": 4986,
  "\u2581korrika": 4987,
  "mor": 4988,
  "\u2581gozo": 4989,
  "\u2581utiliza": 4990,
  "gile": 4991,
  "\u2581Frank": 4992,
  "\u2581XIII": 4993,
  "\u2581explicar": 4994,
  "\u2581interesante": 4995,
  "\u2581necesaria": 4996,
  "LO": 4997,
  "enean": 4998,
  "\u2581Azkenik": 4999,
  "\u2581respondi\u00f3": 5000,
  "\u2581hacemos": 5001,
  "\u2581Mac": 5002,
  "\u2581lekuko": 5003,
  "\u2581amplia": 5004,
  "\u2581banda": 5005,
  "\u2581bir": 5006,
  "\u2581duzuna": 5007,
  "\u2581f\u00e1cilmente": 5008,
  "SA": 5009,
  "sp": 5010,
  "\u2581irekitzen": 5011,
  "\u2581lurrean": 5012,
  "Entonces": 5013,
  "\u25812.-": 5014,
  "\u2581actualidad": 5015,
  "\u2581sentimientos": 5016,
  "...)": 5017,
  "\u2581Javier": 5018,
  "\u2581Zertan": 5019,
  "\u2581egunetan": 5020,
  "\u2581itsu": 5021,
  "\u2581abre": 5022,
  "\u2581desberdinak": 5023,
  "\u2581gaixo": 5024,
  "\u2581jarraituko": 5025,
  "\u2581ondasun": 5026,
  "\u2581perfectamente": 5027,
  "80": 5028,
  "ey": 5029,
  "lak": 5030,
  "\u258180": 5031,
  "\u2581Etxebizitza": 5032,
  "\u2581lectura": 5033,
  "\u2581Jean": 5034,
  "\u2581pentsa": 5035,
  "\u2581tuve": 5036,
  "bol": 5037,
  "\u2581IRUDI": 5038,
  "\u2581an\u00e1lisis": 5039,
  "\u2581capit\u00e1n": 5040,
  "\u2581ikastaro": 5041,
  "Nik": 5042,
  "\u2581igualmente": 5043,
  "\u2581entendimiento": 5044,
  "\u2581negocio": 5045,
  "\u2581norte": 5046,
  "\u2581querer": 5047,
  "tch": 5048,
  "\u2581beteta": 5049,
  "\u2581conforme": 5050,
  "\u2581detalles": 5051,
  "\u2581jiratu": 5052,
  "atzen": 5053,
  "g\u00f3": 5054,
  "izado": 5055,
  "\u2581943": 5056,
  "\u2581Asia": 5057,
  "\u2581I\u00f1aki": 5058,
  "\u2581bizitzaren": 5059,
  "\u2581econ\u00f3mico": 5060,
  "\u2581ezberdin": 5061,
  "\u2581hablado": 5062,
  "\u2581hutsak": 5063,
  "bon": 5064,
  "\u2581Archivo": 5065,
  "ias": 5066,
  "vis": 5067,
  "\u2581eraginez": 5068,
  "alde": 5069,
  "zan": 5070,
  "\u2581erabiltzaile": 5071,
  "\u2581Mon": 5072,
  "\u2581defensa": 5073,
  "\u2581dioses": 5074,
  "\u2581hartzera": 5075,
  "\u2581produktu": 5076,
  "dako": 5077,
  "\u2581hallaba": 5078,
  "\u2581premia": 5079,
  "\u2581produce": 5080,
  "ible": 5081,
  "\u2581cre\u00eda": 5082,
  "\u2581irteten": 5083,
  "t\u00f3n": 5084,
  "\u2581%2": 5085,
  "\u2581finantza": 5086,
  "etxe": 5087,
  "tic": 5088,
  "\u2581Comercio": 5089,
  "\u2581Nombre": 5090,
  "\u2581electr\u00f3nico": 5091,
  "\u2581zaindu": 5092,
  "Nola": 5093,
  "\u2581ideal": 5094,
  "\u2581kalea": 5095,
  "\u2581teilatu": 5096,
  "\u2581mono": 5097,
  "\u2581televisi\u00f3n": 5098,
  "\u2581Fabricio": 5099,
  "\u2581partaide": 5100,
  "\u2581espalda": 5101,
  "\u2581mintzatu": 5102,
  "\u2581Ivan": 5103,
  "\u2581Mur": 5104,
  "\u2581martxoaren": 5105,
  "\u2581aldaketak": 5106,
  "\u2581izenak": 5107,
  "\u2581ocurri\u00f3": 5108,
  "\u2581Ekonomia": 5109,
  "\u2581gordetzen": 5110,
  "\u2581multzo": 5111,
  "iar": 5112,
  "ly": 5113,
  "\u2581Ab": 5114,
  "\u2581argitu": 5115,
  "\u2581ahalmena": 5116,
  "\u2581dise\u00f1o": 5117,
  "\u2581garela": 5118,
  "\u2581potencia": 5119,
  "\u2581agintzen": 5120,
  "\u2581cor": 5121,
  "\u2581pedir": 5122,
  "\u2581\u00e1nimo": 5123,
  "AREN": 5124,
  "\u2581andreak": 5125,
  "\u2581berde": 5126,
  "\u2581emaitzak": 5127,
  "\u2581p\u00e1ginas": 5128,
  "\u2581substantzia": 5129,
  "\u2581Presentaci\u00f3n": 5130,
  "\u2581dieron": 5131,
  "\u2581dir\u00eda": 5132,
  "ux": 5133,
  "\u2581baztertu": 5134,
  "\u2581garbitu": 5135,
  "\u2581nekazaritza": 5136,
  "\u2581pruebas": 5137,
  "nce": 5138,
  "\u2581apirilaren": 5139,
  "\u2581gauzen": 5140,
  "\u2581izar": 5141,
  "\u2581correr": 5142,
  "\u2581presa": 5143,
  "eu": 5144,
  "\u2581Ambiente": 5145,
  "\u2581barco": 5146,
  "\u2581eskuetan": 5147,
  "info": 5148,
  "ula": 5149,
  "\u2581(2": 5150,
  "\u2581chicas": 5151,
  "\u2581garrantzia": 5152,
  "\u2581l\u00edmites": 5153,
  "ona": 5154,
  "\u2581Hobe": 5155,
  "\u2581Noiz": 5156,
  "\u2581bilakatu": 5157,
  "\u2581hirian": 5158,
  "\u2581parecido": 5159,
  "Pues": 5160,
  "\u2581Ola": 5161,
  "\u2581Se\u00f1ora": 5162,
  "sas": 5163,
  "ye": 5164,
  "\u258145": 5165,
  "\u2581Julio": 5166,
  "\u2581bandera": 5167,
  "\u2581tierras": 5168,
  "\u2581Navidad": 5169,
  "\u2581berandu": 5170,
  "\u2581elegir": 5171,
  "\u2581titular": 5172,
  "90": 5173,
  "\u2581AL": 5174,
  "\u2581antigua": 5175,
  "\u2581hartako": 5176,
  "\u2581ku": 5177,
  "\u2581zekien": 5178,
  "Nire": 5179,
  "talde": 5180,
  "\u2581Handik": 5181,
  "\u2581handirik": 5182,
  "\u2581planes": 5183,
  "\u2581castellano": 5184,
  "\u2581ganado": 5185,
  "\u2581olvidar": 5186,
  "arazten": 5187,
  "\u2581ayuntamiento": 5188,
  "\u2581foto": 5189,
  "ieron": 5190,
  "\u00e8n": 5191,
  "\u2581multitud": 5192,
  "korra": 5193,
  "\u2581Beharbada": 5194,
  "\u2581Londres": 5195,
  "\u2581deber": 5196,
  "\u2581ezpata": 5197,
  "\u2581menpe": 5198,
  "\u2581terrible": 5199,
  "\u2581zezakeen": 5200,
  "\u2581beheko": 5201,
  "\u2581bestearen": 5202,
  "\u2581habitual": 5203,
  "\u2581internet": 5204,
  "\u2581referencia": 5205,
  "\u2581tengan": 5206,
  "\u2581baldintzak": 5207,
  "ontzi": 5208,
  "unitatea": 5209,
  "\u2581Jaurlaritzaren": 5210,
  "\u2581descubrir": 5211,
  "\u2581intentar": 5212,
  "bai": 5213,
  "\u2581Bost": 5214,
  "\u2581configuraci\u00f3n": 5215,
  "\u2581eskultura": 5216,
  "\u2581inscripci\u00f3n": 5217,
  "\u2581solas": 5218,
  "etarik": 5219,
  "ham": 5220,
  "\u2581Bob": 5221,
  "\u2581crisis": 5222,
  "\u2581urdin": 5223,
  "ny": 5224,
  "rnos": 5225,
  "\u2581cura": 5226,
  "\u2581diga": 5227,
  "\u2581planeta": 5228,
  "ezin": 5229,
  "ico": 5230,
  "var": 5231,
  "\u2581fu": 5232,
  "\u2581gastos": 5233,
  "\u2581zalantzarik": 5234,
  "\u2581Mis": 5235,
  "\u2581autobus": 5236,
  "\u2581siente": 5237,
  "Dios": 5238,
  "\u2581garraio": 5239,
  "aldia": 5240,
  "tatzen": 5241,
  "\u2581Zerga": 5242,
  "\u2581hartaz": 5243,
  "\u2581licencia": 5244,
  "\u2581organo": 5245,
  "gas": 5246,
  "\u2581Energia": 5247,
  "\u2581Europar": 5248,
  "\u2581Palacio": 5249,
  "\u2581gaztea": 5250,
  "\u2581harrera": 5251,
  "\u2581pienso": 5252,
  "\u2581datozen": 5253,
  "\u2581tro": 5254,
  "ain": 5255,
  "\u2581comandos": 5256,
  "\u2581considerar": 5257,
  "\u2581naves": 5258,
  "\u2581pensado": 5259,
  "\u2581sigui\u00f3": 5260,
  "Tienes": 5261,
  "pia": 5262,
  "\u2581ikastetxe": 5263,
  "mena": 5264,
  "nder": 5265,
  "\u2581procedimiento": 5266,
  "\u2581celebrar\u00e1": 5267,
  "\u2581froga": 5268,
  "\u2581moda": 5269,
  "\u2581zioen": 5270,
  "\u2581CON": 5271,
  "\u2581Congreso": 5272,
  "\u2581Euri": 5273,
  "\u2581pleno": 5274,
  "\u2581neskak": 5275,
  "\u2581ohe": 5276,
  "azio": 5277,
  "\u2581aldatzeko": 5278,
  "\u2581giltza": 5279,
  "\u2581\u00e9stas": 5280,
  "\u2581infantil": 5281,
  "\u2581baditu": 5282,
  "\u2581berbera": 5283,
  "\u2581demanda": 5284,
  "\u2581mon": 5285,
  "\u2581Max": 5286,
  "\u2581Premio": 5287,
  "\u2581komunikazio": 5288,
  "\u2581larri": 5289,
  "\u2581\u00daltima": 5290,
  "\u2581Swann": 5291,
  "\u2581apal": 5292,
  "\u2581itzal": 5293,
  "\u2581laztana": 5294,
  "\u2581segurtasun": 5295,
  "Mar": 5296,
  "siones": 5297,
  "\u2581intercambio": 5298,
  "\u2581oraintxe": 5299,
  "\u2581puro": 5300,
  "itate": 5301,
  "tak": 5302,
  "tikoa": 5303,
  "\u2581Dr": 5304,
  "\u2581halla": 5305,
  "\u2581salvar": 5306,
  "GO": 5307,
  "\u2581Pertsona": 5308,
  "\u2581tarjeta": 5309,
  "bri": 5310,
  "\u2581Dickie": 5311,
  "kari": 5312,
  "tasunak": 5313,
  "\u2581hierro": 5314,
  "\u2581viva": 5315,
  "aban": 5316,
  "up": 5317,
  "\u2581sirve": 5318,
  "\u258190": 5319,
  "\u2581Ban": 5320,
  "\u2581dokumentu": 5321,
  "\u2581inori": 5322,
  "\u2581neukan": 5323,
  "\u2581querida": 5324,
  "cita": 5325,
  "\u2581arnasa": 5326,
  "mota": 5327,
  "\u2581Hirugarren": 5328,
  "\u2581eramateko": 5329,
  "\u2581Erakunde": 5330,
  "\u2581Ordu": 5331,
  "\u2581bot\u00f3n": 5332,
  "\u2581dir\u00e9": 5333,
  "\u2581teknikoa": 5334,
  "est": 5335,
  "id": 5336,
  "\u2581George": 5337,
  "\u2581daitezen": 5338,
  "\u2581estar\u00eda": 5339,
  "\u2581grave": 5340,
  "\u2581ondotik": 5341,
  "\u2581nekez": 5342,
  "\u2581pasi\u00f3n": 5343,
  "\u2581~": 5344,
  "\u2581alai": 5345,
  "\u2581inf": 5346,
  "\u2581singular": 5347,
  "\u2581Chi": 5348,
  "\u2581piernas": 5349,
  "gailu": 5350,
  "\u2581Ikaskuntza": 5351,
  "\u2581actualmente": 5352,
  "uz": 5353,
  "\u2581Gernika": 5354,
  "\u2581lograr": 5355,
  "\u2581reyes": 5356,
  "\u2581teklakoa": 5357,
  "\u2581emakumeen": 5358,
  "bas": 5359,
  "ile": 5360,
  "uka": 5361,
  "\u2581arraio": 5362,
  "\u2581escalera": 5363,
  "\u2581patio": 5364,
  "tore": 5365,
  "\u2581Berrikuntza": 5366,
  "\u2581publicados": 5367,
  "gio": 5368,
  "\u2581Dick": 5369,
  "\u2581amaren": 5370,
  "\u2581cadena": 5371,
  "\u2581gloria": 5372,
  "\u2581informa": 5373,
  "c\u00e9": 5374,
  "\u2581enfermo": 5375,
  "\u2581errua": 5376,
  "\u2581motor": 5377,
  "\u2581borde": 5378,
  "\u2581conde": 5379,
  "\u2581dituztela": 5380,
  "\u2581etsai": 5381,
  "\u2581Gabon": 5382,
  "\u2581compromiso": 5383,
  "\u2581consigo": 5384,
  "\u2581nondik": 5385,
  "\u2581radio": 5386,
  "\u2581\u00fatil": 5387,
  "\u2581Ikerketa": 5388,
  "\u2581cabe": 5389,
  "\u2581distira": 5390,
  "\u2581hasita": 5391,
  "\u2581iritsiko": 5392,
  "\u2581Ah\u00ed": 5393,
  "\u2581bereizten": 5394,
  "\u2581probablemente": 5395,
  "\u2581300": 5396,
  "\u2581ezabatu": 5397,
  "\u2581idazle": 5398,
  "\u2581recorrido": 5399,
  "sek": 5400,
  "\u2581alem\u00e1n": 5401,
  "\u2581babesa": 5402,
  "\u2581neu": 5403,
  "\u2581venga": 5404,
  "rera": 5405,
  "\u2581aulki": 5406,
  "\u2581c\u00e1mara": 5407,
  "\u2581deialdia": 5408,
  "\u2581encontramos": 5409,
  "\u2581metal": 5410,
  "\u2581propuestas": 5411,
  "\u2581soka": 5412,
  "\u2581Toki": 5413,
  "\u2581corta": 5414,
  "\u2581ezetz": 5415,
  "\u2581firma": 5416,
  "\u2581herritarren": 5417,
  "m\u00e9": 5418,
  "\u2581sarri": 5419,
  "\u2581digital": 5420,
  "CA": 5421,
  "for": 5422,
  "\u2581St": 5423,
  "\u2581a\u00f1adir": 5424,
  "\u2581hermoso": 5425,
  "\u2581presentes": 5426,
  "\u2581samar": 5427,
  "\u2581zabala": 5428,
  "\u2581Laguntza": 5429,
  "\u2581Ralph": 5430,
  "\u2581contrato": 5431,
  "\u2581trabaja": 5432,
  "g\u00fc": 5433,
  "\u00edas": 5434,
  "\u2581caracteres": 5435,
  "\u2581herramientas": 5436,
  "\u2581parque": 5437,
  "\u2581Caja": 5438,
  "\u2581Darcy": 5439,
  "\u2581Hotel": 5440,
  "\u2581Kontuz": 5441,
  "\u2581dia": 5442,
  "\u2581IN": 5443,
  "\u2581batzuekin": 5444,
  "\u2581cubierta": 5445,
  "\u2581ezaguna": 5446,
  "\u2581hartara": 5447,
  "\u2581noticia": 5448,
  "eria": 5449,
  "gal": 5450,
  "\u2581berau": 5451,
  "\u2581continuar": 5452,
  "\u2581dagoena": 5453,
  "\u2581dorrea": 5454,
  "\u2581regresar": 5455,
  "dro": 5456,
  "\u2581Liburu": 5457,
  "\u2581duraci\u00f3n": 5458,
  "\u2581karga": 5459,
  "\u2581legea": 5460,
  "\u2581lehenik": 5461,
  "\u2581escapar": 5462,
  "\u2581muro": 5463,
  "\u2581promoci\u00f3n": 5464,
  "\u2581t\u00e9cnica": 5465,
  "SI": 5466,
  "\u2581aitzitik": 5467,
  "\u2581bait": 5468,
  "\u2581econom\u00eda": 5469,
  "\u2581treinta": 5470,
  "35": 5471,
  "ones": 5472,
  "\u2581entera": 5473,
  "\u2581establecer": 5474,
  "\u2581negozio": 5475,
  "\u2581repente": 5476,
  "\u2581abandonar": 5477,
  "\u2581odio": 5478,
  "\u2581solicitar": 5479,
  "\u2581Horra": 5480,
  "\u2581formado": 5481,
  "\u2581gizakiak": 5482,
  "\u2581siglos": 5483,
  "\u2581agur": 5484,
  "\u2581amistad": 5485,
  "\u2581hojas": 5486,
  "\u2581Zoaz": 5487,
  "\u2581bazkide": 5488,
  "\u2581di\u00e1logo": 5489,
  "\u2581miraba": 5490,
  "TU": 5491,
  "\u2581at": 5492,
  "\u2581erabakia": 5493,
  "\u2581flor": 5494,
  "\u2581global": 5495,
  "\u2581hac\u00edan": 5496,
  "\u2581hitzaldi": 5497,
  "\u2581zenez": 5498,
  "mento": 5499,
  "\u2581Munduko": 5500,
  "\u2581Nuevo": 5501,
  "\u2581banatzen": 5502,
  "\u2581quedado": 5503,
  "Zu": 5504,
  "ue": 5505,
  "\u2581Inglaterra": 5506,
  "\u2581dientes": 5507,
  "\u2581kentzen": 5508,
  "\u2581oficiales": 5509,
  "\u2581Ve": 5510,
  "\u2581elecci\u00f3n": 5511,
  "\u2581zerbitzari": 5512,
  "\u2581Lezo": 5513,
  "Gu": 5514,
  "\u2581Algunos": 5515,
  "\u2581Atenas": 5516,
  "\u2581colecci\u00f3n": 5517,
  "\u2581ech\u00f3": 5518,
  "IZ": 5519,
  "pp": 5520,
  "\u2581banco": 5521,
  "\u2581desberdin": 5522,
  "\u2581molde": 5523,
  "\u2581negra": 5524,
  "\u2581teklak": 5525,
  "\u2581telefono": 5526,
  "\u2581unidades": 5527,
  "\u2581Ge": 5528,
  "\u2581muri\u00f3": 5529,
  "teo": 5530,
  "\u2581Horrelako": 5531,
  "\u2581artetik": 5532,
  "\u2581beber": 5533,
  "\u2581desarrollar": 5534,
  "oak": 5535,
  "\u2581Horrez": 5536,
  "\u2581Jane": 5537,
  "\u2581P\u00fablica": 5538,
  "\u2581baitzuten": 5539,
  "\u2581miembro": 5540,
  "\u2581piano": 5541,
  "tasunez": 5542,
  "\u2581Hortaz": 5543,
  "\u2581esaterako": 5544,
  "\u2581irudiak": 5545,
  "\u2581adierazpen": 5546,
  "\u2581sorpresa": 5547,
  "esa": 5548,
  "\u2581Noski": 5549,
  "\u2581Santo": 5550,
  "\u2581dulce": 5551,
  "\u2581emanaldia": 5552,
  "\u2581hogar": 5553,
  "\u2581agentes": 5554,
  "\u2581caser\u00edo": 5555,
  "\u2581negocios": 5556,
  "As\u00ed": 5557,
  "dije": 5558,
  "\u2581Arrazoi": 5559,
  "\u2581Jarri": 5560,
  "\u2581Michael": 5561,
  "\u2581zeuzkan": 5562,
  "pan": 5563,
  "\u2581hedatu": 5564,
  "\u2581puesta": 5565,
  "\u2581temor": 5566,
  "\u2581+": 5567,
  "\u2581aurkezpena": 5568,
  "\u2581bereziak": 5569,
  "\u2581oscuro": 5570,
  "\u2581teniente": 5571,
  "\u2581toca": 5572,
  "%.2": 5573,
  "como": 5574,
  "\u2581Alemania": 5575,
  "\u2581Osasun": 5576,
  "\u2581activa": 5577,
  "\u2581clara": 5578,
  "\u2581dorre": 5579,
  "\u2581epe": 5580,
  "\u2581instalaci\u00f3n": 5581,
  "ers": 5582,
  "\u2581(3": 5583,
  "\u2581FRM": 5584,
  "\u2581Pasaia": 5585,
  "\u2581erdia": 5586,
  "\u2581espazio": 5587,
  "\u2581garaia": 5588,
  "\u2581lehengo": 5589,
  "\u2581llevan": 5590,
  "Cu\u00e1nto": 5591,
  "\u2581Kale": 5592,
  "\u2581aprobaci\u00f3n": 5593,
  "\u2581belarri": 5594,
  "\u2581deporte": 5595,
  "\u2581innovaci\u00f3n": 5596,
  "\u2581jakinarazi": 5597,
  "\u2581m\u00ednimo": 5598,
  "\u2581zehazten": 5599,
  "mbo": 5600,
  "\u2581haietan": 5601,
  "\u2581mutilak": 5602,
  "\u2581Kasu": 5603,
  "\u2581Orden": 5604,
  "\u2581est\u00e9n": 5605,
  "\u2581ikusgai": 5606,
  "bla": 5607,
  "\u2581Jaurlaritzak": 5608,
  "\u2581recoger": 5609,
  "Ahora": 5610,
  "\u2581konfiantza": 5611,
  "\u2581saltzen": 5612,
  "Una": 5613,
  "amos": 5614,
  "\u2581500": 5615,
  "\u2581abian": 5616,
  "\u2581arduratzen": 5617,
  "\u2581erortzen": 5618,
  "\u2581prozedura": 5619,
  "\u2581pude": 5620,
  "\u2581quedaba": 5621,
  "\u2581autom\u00e1ticamente": 5622,
  "\u2581disponibles": 5623,
  "-8": 5624,
  "menta": 5625,
  "Ondo": 5626,
  "ev": 5627,
  "\u2581Industrial": 5628,
  "\u2581arrunt": 5629,
  "\u2581incre\u00edble": 5630,
  "\u2581piensa": 5631,
  "her": 5632,
  "\u2581Control": 5633,
  "\u2581ale": 5634,
  "\u2581askatasuna": 5635,
  "\u2581convocatoria": 5636,
  "\u2581laguntzak": 5637,
  "TE": 5638,
  "ekaitza": 5639,
  "\u2581Strogoff": 5640,
  "\u2581berrogeita": 5641,
  "\u2581edozer": 5642,
  "\u2581gorroto": 5643,
  "\u2581iturri": 5644,
  "\u2581listo": 5645,
  "\u2581pelota": 5646,
  "\u2581reconocimiento": 5647,
  "\u2581vuestro": 5648,
  "?\".": 5649,
  "mia": 5650,
  "\u2581Dis": 5651,
  "\u2581elkartu": 5652,
  "\u2581inola": 5653,
  "\u2581premios": 5654,
  "/03": 5655,
  "\u2581Beno": 5656,
  "\u2581Ol": 5657,
  "\u2581generaci\u00f3n": 5658,
  "une": 5659,
  "\u2581aintzat": 5660,
  "\u2581nabarmendu": 5661,
  "\u2581z": 5662,
  "\u2581claramente": 5663,
  "\u2581erantzuten": 5664,
  "\u2581gaurko": 5665,
  "\u2581hasteko": 5666,
  "\u2581keinu": 5667,
  "\u2581utilidad": 5668,
  "\u2581\u00faltimas": 5669,
  "\u2581erantzuna": 5670,
  "\u2581veh\u00edculo": 5671,
  "nd": 5672,
  "\u2581Behar": 5673,
  "\u2581extensi\u00f3n": 5674,
  "\u2581hasierako": 5675,
  "\u2581reconocer": 5676,
  "\u2581Honela": 5677,
  "\u2581eguzki": 5678,
  "\u2581esanda": 5679,
  "\u2581procesos": 5680,
  "\u2581tercer": 5681,
  "\u2581terminado": 5682,
  "\u2581Bizitza": 5683,
  "\u2581banako": 5684,
  "\u2581clientes": 5685,
  "\u2581intereses": 5686,
  "\u2581reflexi\u00f3n": 5687,
  "\u2581sarritan": 5688,
  "\u2581sustatzeko": 5689,
  "\u2581vegetaci\u00f3n": 5690,
  "\u2581visitas": 5691,
  "\u2581Win": 5692,
  "\u2581jasotzeko": 5693,
  "\u2581verla": 5694,
  "Vi": 5695,
  "\u2581Batzuetan": 5696,
  "\u2581Bill": 5697,
  "\u2581Guk": 5698,
  "\u2581esparru": 5699,
  "\u2581zeharkatu": 5700,
  "\u2581poli": 5701,
  "\u2581sal\u00f3n": 5702,
  "\u2581arautzen": 5703,
  "\u2581finalmente": 5704,
  "\u2581zigor": 5705,
  "-;": 5706,
  "atu": 5707,
  "bere": 5708,
  "dre": 5709,
  "\u25819.": 5710,
  "\u2581Hiria": 5711,
  "\u2581adar": 5712,
  "\u2581ahul": 5713,
  "\u2581gaizto": 5714,
  "\u2581proposatu": 5715,
  "\u2581sail": 5716,
  "\u2581segundos": 5717,
  "\u2581urduri": 5718,
  "\u2581Media": 5719,
  "\u2581asociaci\u00f3n": 5720,
  "\u2581estudiar": 5721,
  "\u2581horrelakorik": 5722,
  "\u2581ibilbide": 5723,
  "\u2581parada": 5724,
  "\u2581se\u00f1ores": 5725,
  "\u2581universidad": 5726,
  "cta": 5727,
  "zer": 5728,
  "\u2581Seguridad": 5729,
  "\u2581denek": 5730,
  "\u2581habl\u00f3": 5731,
  "\u2581antiguos": 5732,
  "\u2581azpi": 5733,
  "\u2581esentzia": 5734,
  "\u2581gurekin": 5735,
  "\u258118:00": 5736,
  "\u2581apaiz": 5737,
  "\u2581finales": 5738,
  "\u2581jabetu": 5739,
  "\u2581ofizial": 5740,
  "\u2581truke": 5741,
  "rlo": 5742,
  "\u2581abuela": 5743,
  "\u2581agiri": 5744,
  "\u2581aparta": 5745,
  "\u2581jatorrizko": 5746,
  "\u2581logela": 5747,
  "\u2581ateratzeko": 5748,
  "\u2581tarea": 5749,
  "\u00e9s": 5750,
  "\u2581hango": 5751,
  "\u2581pocas": 5752,
  "\u2581sektore": 5753,
  "\u2581verlo": 5754,
  "d\u00ed": 5755,
  "\u2581Berriro": 5756,
  "\u2581Gor": 5757,
  "\u2581Tres": 5758,
  "\u2581accesibilidad": 5759,
  "\u2581cerrar": 5760,
  "\u2581coronel": 5761,
  "turiko": 5762,
  "\u2581pasaba": 5763,
  "\u2581puerto": 5764,
  "\u2581sexo": 5765,
  "izazioa": 5766,
  "tivos": 5767,
  "\u2581Eskubideen": 5768,
  "\u2581escultura": 5769,
  "\u2581importe": 5770,
  "\u2581musical": 5771,
  "GA": 5772,
  "\u2581Izen": 5773,
  "\u2581acab\u00f3": 5774,
  "\u2581calma": 5775,
  "oko": 5776,
  "\u2581kalitatea": 5777,
  "CO": 5778,
  "dunak": 5779,
  "gon": 5780,
  "\u00e7a": 5781,
  "\u2581Dan": 5782,
  "\u2581Egoera": 5783,
  "\u2581Hura": 5784,
  "\u2581Mag": 5785,
  "\u2581balira": 5786,
  "\u2581definitiva": 5787,
  "\u2581erro": 5788,
  "ezina": 5789,
  "\u2581Ederki": 5790,
  "\u2581Leo": 5791,
  "\u2581Val": 5792,
  "\u2581adibide": 5793,
  "\u2581bake": 5794,
  "\u2581i\u00e7an": 5795,
  "\u2581jasotako": 5796,
  "\u2581motel": 5797,
  "\u2581sentidos": 5798,
  "\u2581Aldi": 5799,
  "\u2581creado": 5800,
  "\u2581individuo": 5801,
  "\u2581libres": 5802,
  "\u2581zalantza": 5803,
  "\u2581zelai": 5804,
  "\u2581zeudela": 5805,
  "\u2581Jackson": 5806,
  "\u2581Talde": 5807,
  "\u2581egintza": 5808,
  "\u2581humor": 5809,
  "\u2581ligera": 5810,
  "eraino": 5811,
  "\u00e1r": 5812,
  "\u2581Innovaci\u00f3n": 5813,
  "\u2581abiadura": 5814,
  "\u2581cuentas": 5815,
  "\u2581haiei": 5816,
  "\u2581jabetza": 5817,
  "\u2581puestos": 5818,
  "Da": 5819,
  "dic": 5820,
  "ella": 5821,
  "\u2581Necesito": 5822,
  "\u2581Neure": 5823,
  "\u2581canci\u00f3n": 5824,
  "\u2581euskararen": 5825,
  "\u2581guztira": 5826,
  "\u2581kargaren": 5827,
  "\u2581publikoak": 5828,
  "\u2581recuperar": 5829,
  "Ja": 5830,
  "gabea": 5831,
  "takoa": 5832,
  "\u2581Deja": 5833,
  "\u2581Mary": 5834,
  "\u2581deseos": 5835,
  "\u2581dezakete": 5836,
  "\u2581honetatik": 5837,
  "\u2581juez": 5838,
  "\u2581Hauts": 5839,
  "\u2581gaitezen": 5840,
  "\u2581gazteen": 5841,
  "\u2581n\u00fameros": 5842,
  "\u2581v\u00edctimas": 5843,
  "r\u00ed": 5844,
  "\u2581dutena": 5845,
  "\u2581viven": 5846,
  "\u2581zaien": 5847,
  "nas": 5848,
  "\u2581Pamplona": 5849,
  "\u2581breve": 5850,
  "\u2581grina": 5851,
  "\u2581Franklin": 5852,
  "\u2581banku": 5853,
  "\u2581bur": 5854,
  "\u2581establecido": 5855,
  "\u2581iniciar": 5856,
  "\u2581maisu": 5857,
  "\u258119:30": 5858,
  "\u2581Nick": 5859,
  "\u2581bururatu": 5860,
  "\u2581izanda": 5861,
  "\u2581pla": 5862,
  "\u2581podr\u00edan": 5863,
  "\u2581Ignacio": 5864,
  "\u2581bederatzi": 5865,
  "\u2581bolsillo": 5866,
  "\u2581boterea": 5867,
  "\u2581gaua": 5868,
  "\u2581Ordenanza": 5869,
  "\u2581kristau": 5870,
  "\u2581satisfacci\u00f3n": 5871,
  "\u2581zetorren": 5872,
  "\u2581zitzaiola": 5873,
  "dik": 5874,
  "\u2581Bakarrik": 5875,
  "\u2581Buenas": 5876,
  "\u2581Nagusia": 5877,
  "\u2581aceptar": 5878,
  "\u2581gura": 5879,
  "\u2581iritzia": 5880,
  "\u2581jakiteko": 5881,
  "\u2581poes\u00eda": 5882,
  "$": 5883,
  "\u2581revista": 5884,
  "\u2581taldearen": 5885,
  "\u2581\u2022": 5886,
  "\u2581Ara": 5887,
  "\u2581Beasain": 5888,
  "\u2581bidaltzen": 5889,
  "\u2581distinto": 5890,
  "\u2581ezazue": 5891,
  "\u2581Estadounidense": 5892,
  "\u2581Ger": 5893,
  "\u2581mus": 5894,
  "\u2581obligado": 5895,
  "Cu\u00e1ndo": 5896,
  "Las": 5897,
  "\u2581comienza": 5898,
  "\u2581tropas": 5899,
  "zain": 5900,
  "\u258110:00": 5901,
  "\u2581Ellos": 5902,
  "\u2581Etorri": 5903,
  "\u2581cambiado": 5904,
  "\u2581come": 5905,
  "0": 5906,
  "\u2581C\u00f3digo": 5907,
  "\u2581artistas": 5908,
  "\u2581emana": 5909,
  "\u2581estudiantes": 5910,
  "\u2581monta\u00f1a": 5911,
  "\u2581restaurante": 5912,
  "\u2581taula": 5913,
  "\u2581Activar": 5914,
  "\u2581Error": 5915,
  "\u2581berdina": 5916,
  "\u2581cincuenta": 5917,
  "\u2581dezakeen": 5918,
  "\u2581etxeak": 5919,
  "\u2581hiritar": 5920,
  "\u2581otoitz": 5921,
  "\u2581taldeko": 5922,
  "\u2581utilizaci\u00f3n": 5923,
  "CI\u00d3N": 5924,
  "izatu": 5925,
  "lli": 5926,
  "\u2581Euskararen": 5927,
  "\u2581Halako": 5928,
  "\u2581banan": 5929,
  "\u2581castillo": 5930,
  "\u2581convertido": 5931,
  "\u2581irteera": 5932,
  "\u2581jauzi": 5933,
  "\u2581makurtu": 5934,
  "\u2581sinti\u00f3": 5935,
  "\u2581Duela": 5936,
  "\u2581excepto": 5937,
  "\u2581pens\u00e9": 5938,
  "\u2581AR": 5939,
  "\u2581columna": 5940,
  "\u2581goian": 5941,
  "\u2581poliki": 5942,
  "\u2581producto": 5943,
  "\u2581quiso": 5944,
  "\u2581seguido": 5945,
  "\"?": 5946,
  "ix": 5947,
  "\u2581guardia": 5948,
  "\u2581ojo": 5949,
  "CE": 5950,
  "txoak": 5951,
  "\u2581kontzeptu": 5952,
  "\u2581Gela": 5953,
  "\u2581administraci\u00f3n": 5954,
  "ate": 5955,
  "ketak": 5956,
  "\u2581auzi": 5957,
  "\u258101": 5958,
  "\u2581erabateko": 5959,
  "\u2581urtero": 5960,
  "\u2581colocar": 5961,
  "\u2581gogora": 5962,
  "\u2581izatearen": 5963,
  "\u2581meta": 5964,
  "\u2581perfecto": 5965,
  "\u2581txo": 5966,
  "\u2581udalerri": 5967,
  "\u2581zoragarria": 5968,
  "\u2581Grupo": 5969,
  "\u2581alda": 5970,
  "\u2581jarraiki": 5971,
  "\u2581llave": 5972,
  "datu": 5973,
  "\u2581ML": 5974,
  "\u2581antzerki": 5975,
  "\u2581c\u00e1rcel": 5976,
  "lor": 5977,
  "\u2581ciertas": 5978,
  "\u2581decidido": 5979,
  "\u2581emazte": 5980,
  "\u2581Helbidea": 5981,
  "\u2581precios": 5982,
  "\u2581Donostian": 5983,
  "\u2581ingurumen": 5984,
  "\u2581llaman": 5985,
  "\u2581musu": 5986,
  "\u2581puska": 5987,
  "i\u00e9ndose": 5988,
  "jar": 5989,
  "\u2581Ekintza": 5990,
  "\u2581Otros": 5991,
  "\u2581eratu": 5992,
  "\u2581eskubideak": 5993,
  "\u2581opari": 5994,
  "ilo": 5995,
  "iva": 5996,
  "ov": 5997,
  "\u2581betea": 5998,
  "\u2581res": 5999,
  "\u2581Sarrera": 6000,
  "\u2581cliente": 6001,
  "\u2581frogatu": 6002,
  "\u2581fueran": 6003,
  "\u2581harremanak": 6004,
  "\u2581hobetzeko": 6005,
  "\u2581probar": 6006,
  "\u2581Ulertzen": 6007,
  "\u2581conferencia": 6008,
  "\u2581flota": 6009,
  "\u2581tartean": 6010,
  "\u2581uniforme": 6011,
  "\u2581\u0160vejk": 6012,
  "\u2581ninduten": 6013,
  "\u2581quedan": 6014,
  "\u2581impulso": 6015,
  "\u2581senarra": 6016,
  "\u2581unitate": 6017,
  "log": 6018,
  "\u2581Unibertsitateko": 6019,
  "\u2581enpresak": 6020,
  "\u2581escena": 6021,
  "\u2581honetara": 6022,
  "GU": 6023,
  "nza": 6024,
  "\u2581Spade": 6025,
  "\u2581betiere": 6026,
  "\u2581txori": 6027,
  "natu": 6028,
  "\u2581cima": 6029,
  "\u2581demostrar": 6030,
  "\u2581dutenek": 6031,
  "\u2581ganas": 6032,
  "\u2581raro": 6033,
  "\u2581servir": 6034,
  "\u2581N\u00famero": 6035,
  "\u2581Pol\u00edtica": 6036,
  "\u2581Presidente": 6037,
  "\u2581filosofia": 6038,
  "\u2581llegada": 6039,
  "\u2581koadro": 6040,
  "DA": 6041,
  "\u25812016": 6042,
  "\u2581Aralarrek": 6043,
  "\u2581helbide": 6044,
  "mal": 6045,
  "\u2581menores": 6046,
  "\u2581moderno": 6047,
  "\u2581presentzia": 6048,
  "erdi": 6049,
  "\u2581directo": 6050,
  "\u2581ezkerreko": 6051,
  "\u2581merkatu": 6052,
  "CSV": 6053,
  "\u2581Hainbat": 6054,
  "\u2581Parque": 6055,
  "\u2581XV": 6056,
  "\u2581digute": 6057,
  "\u2581identidad": 6058,
  "\u2581ikaragarri": 6059,
  "\u2581libera": 6060,
  "\u2581proiektuak": 6061,
  "\u2581zur": 6062,
  "clu": 6063,
  "\u2581marka": 6064,
  "\u2581pertsonen": 6065,
  "\u2581txostena": 6066,
  "tibo": 6067,
  "\u2581Proposici\u00f3n": 6068,
  "\u2581ezean": 6069,
  "tzearen": 6070,
  "\u2581Sociales": 6071,
  "\u2581Vo": 6072,
  "\u2581abantaila": 6073,
  "\u2581actitud": 6074,
  "bete": 6075,
  "\u2581Mont": 6076,
  "\u2581dispone": 6077,
  "\u2581zine": 6078,
  "art": 6079,
  "dero": 6080,
  "\u2581Ser\u00e1": 6081,
  "\u2581bizitzako": 6082,
  "\u2581biztanle": 6083,
  "\u2581departamento": 6084,
  "\u2581etxetik": 6085,
  "\u2581garrantzi": 6086,
  "\u2581itzali": 6087,
  "\u2581lentamente": 6088,
  "BA": 6089,
  "\u2581diete": 6090,
  "\u2581especiales": 6091,
  "\u2581misterio": 6092,
  "\u2581Arau": 6093,
  "\u2581Plata": 6094,
  "\u2581reglas": 6095,
  "\u2581Est\u00e1n": 6096,
  "\u2581baserri": 6097,
  "\u2581playa": 6098,
  "\u2581zoriontsu": 6099,
  "\u2581Patxi": 6100,
  "\u2581amiga": 6101,
  "\u2581momentu": 6102,
  "\u2581significado": 6103,
  "\u2581villa": 6104,
  "\u2581zintzilik": 6105,
  "\u2581caballeros": 6106,
  "\u2581erdiko": 6107,
  "\u2581lotutako": 6108,
  "\u2581tr\u00e1fico": 6109,
  "kia": 6110,
  "teria": 6111,
  "\u2581curiosidad": 6112,
  "\u2581gizonen": 6113,
  "\u2581gracia": 6114,
  "\u2581latino": 6115,
  "\u2581salido": 6116,
  "\u2581emakumea": 6117,
  "\u2581haietako": 6118,
  "ud": 6119,
  "\u2581Az": 6120,
  "\u2581d\u00e9": 6121,
  "\u2581historiko": 6122,
  "\u2581pos": 6123,
  "\u2581regla": 6124,
  "Ar": 6125,
  "ent": 6126,
  "isa": 6127,
  "kal": 6128,
  "\u2581A\u00fan": 6129,
  "\u2581administra": 6130,
  "\u2581locura": 6131,
  "\u2581plazer": 6132,
  "\u2581ministro": 6133,
  "\u2581Local": 6134,
  "\u2581garatzen": 6135,
  "\u2581harik": 6136,
  "\u2581registro": 6137,
  "\u2581ten": 6138,
  "\u2581viendo": 6139,
  "pel": 6140,
  "\u2581ahalmen": 6141,
  "\u2581amable": 6142,
  "\u2581barrura": 6143,
  "\u2581cruz": 6144,
  "\u2581dificultad": 6145,
  "\u2581kargu": 6146,
  "\u2581parroquia": 6147,
  "\u2581secci\u00f3n": 6148,
  "\u2581zentro": 6149,
  "\u2581Ten": 6150,
  "\u2581artikulu": 6151,
  "\u2581corresponde": 6152,
  "\u2581zedin": 6153,
  "cido": 6154,
  "\u2581Gaitu": 6155,
  "\u2581anual": 6156,
  "\u2581arloan": 6157,
  "\u2581dirigido": 6158,
  "\u2581discurso": 6159,
  "\u2581eragile": 6160,
  "\u2581oy\u00f3": 6161,
  "\u2581plazas": 6162,
  "\u2581r\u00e9gimen": 6163,
  "NA": 6164,
  "esta": 6165,
  "\u2581bitxia": 6166,
  "\u2581dakar": 6167,
  "\u2581gaitasuna": 6168,
  "\u2581herriak": 6169,
  "\u2581individual": 6170,
  "\u2581plana": 6171,
  "\u2581semejantes": 6172,
  "\u2581suele": 6173,
  "\u2581zaitezke": 6174,
  "\u2581zaituzte": 6175,
  "er\u00eda": 6176,
  "\u2581Acceso": 6177,
  "\u2581actuar": 6178,
  "\u2581art\u00edculos": 6179,
  "\u2581odola": 6180,
  "\u2581zeu": 6181,
  "\u2581Deba": 6182,
  "\u2581versi\u00f3n": 6183,
  "\u2581zabiltza": 6184,
  "\u2581T\u00e9cnico": 6185,
  "\u2581implica": 6186,
  "\u2581nahasi": 6187,
  "\u2581seinale": 6188,
  "Zure": 6189,
  "\u00b0": 6190,
  "\u2581evoluci\u00f3n": 6191,
  "\u2581otsailaren": 6192,
  "\u2581zubi": 6193,
  "\u2581datza": 6194,
  "\u2581ense\u00f1anza": 6195,
  "ges": 6196,
  "idas": 6197,
  "\u2581amplio": 6198,
  "\u2581chi": 6199,
  "\u2581destaca": 6200,
  "\u2581escudo": 6201,
  "\u2581estrategia": 6202,
  "\u2581garapena": 6203,
  "\u2581nolabaiteko": 6204,
  "\u2581nu": 6205,
  "\u2581tele": 6206,
  "\u2581amore": 6207,
  "\u2581asimismo": 6208,
  "\u2581erakutsiko": 6209,
  "\u2581ibiltzea": 6210,
  "\u2581kokatuta": 6211,
  "ora": 6212,
  "\u2581Ate": 6213,
  "\u2581Proyecto": 6214,
  "\u2581Tolosa": 6215,
  "\u2581determinado": 6216,
  "\u2581epaile": 6217,
  "\u2581osatutako": 6218,
  "\u2581zeinaren": 6219,
  "\u2581Erakusketa": 6220,
  "\u2581arra": 6221,
  "\u2581aurreratu": 6222,
  "\u2581ekartzen": 6223,
  "\u2581lanbide": 6224,
  "\u2581subvenciones": 6225,
  "\u2581zuenez": 6226,
  "\u2581Io": 6227,
  "\u2581Iparralde": 6228,
  "\u2581Itzuli": 6229,
  "\u2581conocimientos": 6230,
  "\u2581debes": 6231,
  "\u2581l\u00e1grimas": 6232,
  "\u2581trato": 6233,
  "\u2581zutenean": 6234,
  "leta": 6235,
  "osa": 6236,
  "udi": 6237,
  "\u2581Ulenspiegel": 6238,
  "\u2581apartado": 6239,
  "\u2581betetzeko": 6240,
  "\u2581formar": 6241,
  "\u2581zeru": 6242,
  "tegia": 6243,
  "\u25811999": 6244,
  "\u2581Hemos": 6245,
  "\u2581Hora": 6246,
  "\u2581cer": 6247,
  "\u2581consejo": 6248,
  "\u2581dituzun": 6249,
  "\u2581finkatu": 6250,
  "\u2581Au": 6251,
  "\u2581dificultades": 6252,
  "\u2581haurrak": 6253,
  "\u2581parecen": 6254,
  "nea": 6255,
  "\u2581Arra": 6256,
  "\u2581bajar": 6257,
  "\u2581ecen": 6258,
  "\u2581James": 6259,
  "\u2581fija": 6260,
  "\u2581handitu": 6261,
  "\u2581naci\u00f3n": 6262,
  "\u2581nauk": 6263,
  "r\u00e1s": 6264,
  "\u2581ezagun": 6265,
  "\u2581Virgen": 6266,
  "\u2581consecuencias": 6267,
  "Mo": 6268,
  "\u00e1ndole": 6269,
  "\u2581Ordenantza": 6270,
  "\u2581haz": 6271,
  "\u2581naute": 6272,
  "\u2581suntsitu": 6273,
  "\u2581arduratu": 6274,
  "\u2581bakan": 6275,
  "\u2581canciones": 6276,
  "\u2581llam\u00f3": 6277,
  "\u2581t\u00e9": 6278,
  "\u2581ven\u00eda": 6279,
  "etsi": 6280,
  "\u2581andere\u00f1oa": 6281,
  "\u2581egiaztatu": 6282,
  "\u2581extra": 6283,
  "bro": 6284,
  "cla": 6285,
  "\u2581MU": 6286,
  "\u2581bideo": 6287,
  "\u2581hatz": 6288,
  "poli": 6289,
  "\u2581cu\u00e1nto": 6290,
  "\u2581pens\u00f3": 6291,
  "\u2581solicitudes": 6292,
  "KI": 6293,
  "c\u00eda": 6294,
  "\u2581Actividades": 6295,
  "\u2581alcance": 6296,
  "\u2581dituztenak": 6297,
  "\u2581garrantzitsu": 6298,
  "\u2581zelarik": 6299,
  "\u2581zezan": 6300,
  "Eres": 6301,
  "rentzako": 6302,
  "\u2581aldatzea": 6303,
  "\u2581herritar": 6304,
  "\u2581piedras": 6305,
  "\u2581profesores": 6306,
  "\u2581situada": 6307,
  "din": 6308,
  "gela": 6309,
  "mentu": 6310,
  "\u2581Azkar": 6311,
  "\u2581arauak": 6312,
  "\u2581cuadro": 6313,
  "\u2581gehienetan": 6314,
  "\u2581gida": 6315,
  "\u2581inondik": 6316,
  "\u2581proposamen": 6317,
  "lie": 6318,
  "\u2581Jende": 6319,
  "\u2581dirigi\u00f3": 6320,
  "\u2581im": 6321,
  "\u2581l\u00edmite": 6322,
  "\u2581ofrecen": 6323,
  "bero": 6324,
  "\u2581Mc": 6325,
  "\u2581figuras": 6326,
  "\u2581lor": 6327,
  "\u2581Huts": 6328,
  "\u2581goitik": 6329,
  "\u2581habiendo": 6330,
  "\u2581Parke": 6331,
  "\u2581barneko": 6332,
  "\u2581erregea": 6333,
  "\u2581feria": 6334,
  "\u2581imaginaci\u00f3n": 6335,
  "\u2581tokian": 6336,
  "38": 6337,
  "89": 6338,
  "bidea": 6339,
  "iano": 6340,
  "tzeari": 6341,
  "\u2581Begiratu": 6342,
  "\u2581Hemendik": 6343,
  "\u2581absolutamente": 6344,
  "\u2581ciertos": 6345,
  "\u2581etsi": 6346,
  "\u2581karpeta": 6347,
  "\u2581ke": 6348,
  "\u2581normas": 6349,
  "\u2581tratando": 6350,
  "33": 6351,
  "cal": 6352,
  "cle": 6353,
  "tarako": 6354,
  "\u2581griegos": 6355,
  "\u2581juzgar": 6356,
  "\u2581sostenible": 6357,
  "forma": 6358,
  "\u2581Batzar": 6359,
  "\u2581Ingeniaritza": 6360,
  "\u2581Zo": 6361,
  "\u2581legal": 6362,
  "\u2581Junto": 6363,
  "\u2581bale": 6364,
  "\u2581capaces": 6365,
  "\u2581llegaron": 6366,
  "ude": 6367,
  "\u2581Junta": 6368,
  "\u2581abogado": 6369,
  "\u2581alarma": 6370,
  "\u2581astean": 6371,
  "\u2581cantar": 6372,
  "\u2581monitorea": 6373,
  "\u2581olvidado": 6374,
  "\u2581txapelketa": 6375,
  "\u2581hierba": 6376,
  "\u2581ni\u00f1as": 6377,
  "\u2581pertenece": 6378,
  "nik": 6379,
  "sistema": 6380,
  "\u2581Charles": 6381,
  "\u2581URL": 6382,
  "\u2581lantzen": 6383,
  "\u2581operaciones": 6384,
  "\u2581patrimonio": 6385,
  "\")": 6386,
  "eri": 6387,
  "imos": 6388,
  "\u2581Juventud": 6389,
  "\u2581Nosotros": 6390,
  "\u2581ibilgailu": 6391,
  "\u2581jarraituz": 6392,
  "\u2581sale": 6393,
  "iako": 6394,
  "\u2581Fin": 6395,
  "\u2581astiro": 6396,
  "\u2581buruzkoa": 6397,
  "\u2581elkarteak": 6398,
  "\u2581iguales": 6399,
  "\u2581mugi": 6400,
  "\u2581samarra": 6401,
  "Pa": 6402,
  "\u2581Lur": 6403,
  "\u2581corto": 6404,
  "\u2581horra": 6405,
  "\u2581mezcla": 6406,
  "\u2581Algo": 6407,
  "\u2581Colin": 6408,
  "\u2581Komando": 6409,
  "\u2581arina": 6410,
  "\u2581categor\u00eda": 6411,
  "\u2581cola": 6412,
  "\u2581fen\u00f3meno": 6413,
  "\u2581responder": 6414,
  "Sal": 6415,
  "\u2581bertatik": 6416,
  "\u2581izu": 6417,
  "\u2581txar": 6418,
  "\u2581buelta": 6419,
  "\u2581dadila": 6420,
  "\u2581telefonoa": 6421,
  "rina": 6422,
  "\u2581harrapatzen": 6423,
  "\u2581nekien": 6424,
  "\u2581pen": 6425,
  "\u2581vienen": 6426,
  "l\u00e9": 6427,
  "\u2581Bilbo": 6428,
  "\u2581acababa": 6429,
  "\u2581atzo": 6430,
  "\u2581funtzioak": 6431,
  "\u2581hartutako": 6432,
  "US": 6433,
  "\u2581diferencias": 6434,
  "\u2581errepidea": 6435,
  "\u2581jatorria": 6436,
  "\u2581mantiene": 6437,
  "\u2581Gasteiz": 6438,
  "\u2581aldian": 6439,
  "\u2581badirudi": 6440,
  "IA": 6441,
  "iti": 6442,
  "\u2581Investigaci\u00f3n": 6443,
  "\u2581MA": 6444,
  "\u2581Puedes": 6445,
  "\u2581anitz": 6446,
  "\u2581azoka": 6447,
  "\u2581inversi\u00f3n": 6448,
  "\u2581arrantza": 6449,
  "\u2581estali": 6450,
  "0.000": 6451,
  "agu": 6452,
  "jas": 6453,
  "tse": 6454,
  "\u2581Eduardo": 6455,
  "\u2581aukerak": 6456,
  "\u2581harremana": 6457,
  "\u2581zikin": 6458,
  "TZA": 6459,
  "\u2581Sha": 6460,
  "\u2581borrokan": 6461,
  "\u2581guztiaren": 6462,
  "\u2581pol\u00edticos": 6463,
  "\u2581prezioa": 6464,
  "\u2581t\u00e9cnicas": 6465,
  "\u2581bilakaera": 6466,
  "\u2581itzazu": 6467,
  "\u2581ordaintzen": 6468,
  "\u2581zeraman": 6469,
  "lako": 6470,
  "\u2581Derecho": 6471,
  "\u2581Frantzia": 6472,
  "\u2581guri": 6473,
  "\u2581posibles": 6474,
  "\u2581txanda": 6475,
  "\u2581zeinen": 6476,
  "\u2581lurrera": 6477,
  "\u2581nariz": 6478,
  "\u2581urrezko": 6479,
  "\u2581liburuak": 6480,
  "\u2581zerizan": 6481,
  "\u2581conservar": 6482,
  "\u2581eginkizun": 6483,
  "\u2581profundo": 6484,
  "\u2581Mundial": 6485,
  "\u2581compartir": 6486,
  "\u2581istorio": 6487,
  "\u2581realizar\u00e1": 6488,
  "tzak": 6489,
  "tzeak": 6490,
  "\u2581Empresariales": 6491,
  "\u2581Etxera": 6492,
  "\u2581consideraci\u00f3n": 6493,
  "\u2581darse": 6494,
  "\u2581ederrak": 6495,
  "\u2581usain": 6496,
  "prim": 6497,
  "ys": 6498,
  "\u2581amaitzen": 6499,
  "\u2581nacimiento": 6500,
  "\u2581salatu": 6501,
  "\u2581valle": 6502,
  "dal": 6503,
  "kua": 6504,
  "\u2581d\u00e9bil": 6505,
  "\u2581teoria": 6506,
  "\u2581urdina": 6507,
  "\u2581Atzeko": 6508,
  "\u2581Nuestro": 6509,
  "\u2581egunkari": 6510,
  "\u2581imaginar": 6511,
  "\u2581minuto": 6512,
  "\u2581nintzenean": 6513,
  "\u2581privado": 6514,
  "\u2581zigun": 6515,
  "\u258109": 6516,
  "\u2581beraiek": 6517,
  "\u2581komunitate": 6518,
  "olog\u00eda": 6519,
  "\u2581bertara": 6520,
  "\u2581homenaje": 6521,
  "\u2581mando": 6522,
  "\u2581porcentaje": 6523,
  "\u2581soldado": 6524,
  "\u2581zituztela": 6525,
  "toi": 6526,
  "\u2581Parlamento": 6527,
  "\u2581dudarik": 6528,
  "\u2581espiritual": 6529,
  "\u2581gertakari": 6530,
  "\u2581maitasun": 6531,
  "\u2581Ezta": 6532,
  "\u2581gradu": 6533,
  "\u2581macro": 6534,
  "\u2581traer": 6535,
  "\u2581A\u00f1o": 6536,
  "\u2581Danny": 6537,
  "\u2581Tiempo": 6538,
  "\u2581aniversario": 6539,
  "\u2581hagas": 6540,
  "\u2581men\u00fa": 6541,
  "\u2581zaizkio": 6542,
  "\u2581zehazki": 6543,
  "die": 6544,
  "ist": 6545,
  "\u2581Bas": 6546,
  "\u2581LOS": 6547,
  "\u2581Prest": 6548,
  "\u2581belaunaldi": 6549,
  "\u2581distinta": 6550,
  "\u2581neurriak": 6551,
  "\u2581zuzendaria": 6552,
  "\u2581haragi": 6553,
  "\u2581hilda": 6554,
  "\u2581konpondu": 6555,
  "\u2581disponible": 6556,
  "\u2581perros": 6557,
  "\u2581tratamiento": 6558,
  "\u2581txakur": 6559,
  "\u2581Berehala": 6560,
  "\u2581Supongo": 6561,
  "\u2581askatasun": 6562,
  "berg": 6563,
  "\u2581artisau": 6564,
  "\u2581azpimarratu": 6565,
  "\u2581dagozkion": 6566,
  "\u2581gazta": 6567,
  "\u2581Grado": 6568,
  "\u2581gertaera": 6569,
  "\u2581hurbiltzen": 6570,
  "\u2581parec\u00edan": 6571,
  "\u2581plata": 6572,
  "\u2581representantes": 6573,
  "\u2581zuzentzen": 6574,
  "NI": 6575,
  "m\u00f3": 6576,
  "uro": 6577,
  "\u2581andar": 6578,
  "\u2581dijiste": 6579,
  "\u2581egur": 6580,
  "\u2581fotos": 6581,
  "\u2581garatzeko": 6582,
  "\u2581higidura": 6583,
  "\u2581kezka": 6584,
  "cado": 6585,
  "laguntza": 6586,
  "\u2581XIV": 6587,
  "\u2581necesariamente": 6588,
  "\u2581proteger": 6589,
  "\u2581siguiendo": 6590,
  "Era": 6591,
  "\u2581CO": 6592,
  "\u2581Jaurlaritzako": 6593,
  "\u2581Obra": 6594,
  "\u2581bertute": 6595,
  "\u2581hamabost": 6596,
  "\u2581permiso": 6597,
  "\u2581victoria": 6598,
  "\u2581(\"": 6599,
  "\u2581bultzatzen": 6600,
  "\u2581her": 6601,
  "\u2581printze": 6602,
  "\u2581tejado": 6603,
  "Gipuzkoa": 6604,
  "mbre": 6605,
  "\u2581Harea": 6606,
  "\u2581baliatu": 6607,
  "\u2581beldurrez": 6608,
  "\u2581dantzari": 6609,
  "\u2581dijeron": 6610,
  "bili": 6611,
  "izazio": 6612,
  "\u2581Alcalde": 6613,
  "\u2581Egipto": 6614,
  "\u2581barruko": 6615,
  "\u2581biltegi": 6616,
  "\u2581comercial": 6617,
  "\u2581instrumentos": 6618,
  "\u2581tapa": 6619,
  "Jo": 6620,
  "Oso": 6621,
  "\u2581Itsas": 6622,
  "\u2581Jan": 6623,
  "\u2581baitago": 6624,
  "\u2581cay\u00f3": 6625,
  "\u2581cuesta": 6626,
  "\u2581egitean": 6627,
  "\u2581erreferentzia": 6628,
  "\u2581escucha": 6629,
  "\u2581onartzea": 6630,
  "\u2581principalmente": 6631,
  "\u2581bakean": 6632,
  "\u2581carpeta": 6633,
  "\u2581entrevista": 6634,
  "\u2581Izotz": 6635,
  "\u2581decirlo": 6636,
  "\u2581hartatik": 6637,
  "\u2581kanpaina": 6638,
  "\u2581protagonista": 6639,
  "\u2581Bel": 6640,
  "\u2581Bri": 6641,
  "\u2581eskerrak": 6642,
  "\u2581goazen": 6643,
  "Crees": 6644,
  "gailua": 6645,
  "\u258111.": 6646,
  "\u2581correcto": 6647,
  "\u2581hacerle": 6648,
  "\u2581Tor": 6649,
  "\u2581acu": 6650,
  "\u2581atseden": 6651,
  "\u2581conducta": 6652,
  "\u2581despertar": 6653,
  "\u2581entra": 6654,
  "\u2581explica": 6655,
  "\u2581f\u00edsica": 6656,
  "\u2581izugarria": 6657,
  "\u2581presta": 6658,
  "\u2581temperatura": 6659,
  "39": 6660,
  "ncia": 6661,
  "\u2581Laster": 6662,
  "\u2581arrotz": 6663,
  "\u2581nitaz": 6664,
  "\u2581plazan": 6665,
  "\u2581sustancia": 6666,
  "keten": 6667,
  "\u258111:00": 6668,
  "\u2581clima": 6669,
  "\u2581eskailera": 6670,
  "\u2581ordurako": 6671,
  "\u2581paga": 6672,
  "\u2581permitir": 6673,
  "tzailearen": 6674,
  "\u2581Inter": 6675,
  "\u2581RE": 6676,
  "\u2581cerrado": 6677,
  "\u2581ofiziala": 6678,
  "Kaixo": 6679,
  "dita": 6680,
  "\u2581Alberto": 6681,
  "\u2581ezagutzea": 6682,
  "\u2581funcionamiento": 6683,
  "\u2581kantu": 6684,
  "\u2581p\u00f3rtico": 6685,
  "degi": 6686,
  "\u2581Filosofia": 6687,
  "\u2581arriskua": 6688,
  "\u2581batu": 6689,
  "\u2581botila": 6690,
  "\u2581haiekin": 6691,
  "\u2581personales": 6692,
  "dantza": 6693,
  "\u2581Alex": 6694,
  "\u2581aurten": 6695,
  "\u2581gana": 6696,
  "\u2581opiniones": 6697,
  "ana": 6698,
  "mendebaldea": 6699,
  "\u2581Karta": 6700,
  "\u2581art": 6701,
  "\u2581dejando": 6702,
  "\u2581erronka": 6703,
  "\u2581parrokia": 6704,
  "\u2581presi\u00f3n": 6705,
  "\u2581Prop": 6706,
  "\u2581Txiki": 6707,
  "\u2581estima": 6708,
  "lau": 6709,
  "roa": 6710,
  "\u2581Saila": 6711,
  "\u2581esnatu": 6712,
  "\u2581info": 6713,
  "dina": 6714,
  "\u2581Lobiano": 6715,
  "\u2581Robert": 6716,
  "\u2581formal": 6717,
  "\u2581hamaika": 6718,
  "\u2581ikuskizun": 6719,
  "\u2581corriendo": 6720,
  "\u2581esquina": 6721,
  "\u2581hombros": 6722,
  "\u2581ikasketak": 6723,
  "sar": 6724,
  "\u25811)": 6725,
  "\u2581hiciste": 6726,
  "\u2581hiltzea": 6727,
  "\u2581hospital": 6728,
  "\u2581modura": 6729,
  "\u2581oficio": 6730,
  "bur": 6731,
  "hartze": 6732,
  "\u258114:00": 6733,
  "\u2581goaz": 6734,
  "\u2581lortzea": 6735,
  "\u2581mailan": 6736,
  "\u2581regi\u00f3n": 6737,
  "!\".": 6738,
  "\u2581astindu": 6739,
  "\u2581bizitzeko": 6740,
  "\u2581cr\u00e9dito": 6741,
  "\u2581errealitatea": 6742,
  "\u2581espada": 6743,
  "\u2581hab\u00e9is": 6744,
  "\u2581hoja": 6745,
  "\u2581pean": 6746,
  "\u2581recibe": 6747,
  ":00": 6748,
  "\u2581Ac": 6749,
  "\u2581acabar": 6750,
  "\u2581actuales": 6751,
  "\u2581ezaugarriak": 6752,
  "\u2581janari": 6753,
  "\u2581monta\u00f1as": 6754,
  "SE": 6755,
  "\u2581Tierra": 6756,
  "\u2581argazkiak": 6757,
  "\u2581pobres": 6758,
  "rica": 6759,
  "san": 6760,
  "\u2581beterik": 6761,
  "\u2581eramatea": 6762,
  "\u2581horario": 6763,
  "\u2581ri": 6764,
  "\u2581tuvieron": 6765,
  "ERA": 6766,
  "\u2581Dio": 6767,
  "\u2581areto": 6768,
  "\u2581continua": 6769,
  "\u2581plena": 6770,
  "\u2581Irudi": 6771,
  "\u2581Zientzia": 6772,
  "\u2581gizakiaren": 6773,
  "\u2581musikari": 6774,
  "\u2581zeukaten": 6775,
  "\u00e1c": 6776,
  "\u2581Gas": 6777,
  "\u2581acerc\u00f3": 6778,
  "\u2581automatikoki": 6779,
  "\u2581ero": 6780,
  "\u2581makila": 6781,
  "\u2581recibi\u00f3": 6782,
  "Sa": 6783,
  "itario": 6784,
  "tzan": 6785,
  "\u2581Amak": 6786,
  "\u2581Niri": 6787,
  "\u2581Zenbait": 6788,
  "\u2581agindua": 6789,
  "\u2581estrellas": 6790,
  "\u2581posibilidades": 6791,
  "\u2581Berriz": 6792,
  "\u2581Garapen": 6793,
  "\u2581cuyos": 6794,
  "\u2581elementuak": 6795,
  "\u2581kaleko": 6796,
  "\u2581medir": 6797,
  "\u2581akats": 6798,
  "\u2581aparecen": 6799,
  "\u2581detuvo": 6800,
  "\u00cd": 6801,
  "\u2581Ideia": 6802,
  "\u2581Jai": 6803,
  "\u2581ardatz": 6804,
  "\u2581kokatzen": 6805,
  "\u2581lehena": 6806,
  "\u2581negros": 6807,
  "\u2581numerosos": 6808,
  "ori": 6809,
  "\u2581doinu": 6810,
  "\u2581xehetasun": 6811,
  "aje": 6812,
  "lly": 6813,
  "r\u00edas": 6814,
  "\u2581Syme": 6815,
  "\u2581absurdo": 6816,
  "\u2581cerebro": 6817,
  "\u2581conseguido": 6818,
  "\u2581ergel": 6819,
  "\u2581honelako": 6820,
  "\u2581irekita": 6821,
  "\u2581Edozein": 6822,
  "\u2581Mai": 6823,
  "\u2581Nagusi": 6824,
  "\u2581iristeko": 6825,
  "\u2581txikiagoa": 6826,
  "\u2581Informe": 6827,
  "\u2581declaraci\u00f3n": 6828,
  "\u2581dezala": 6829,
  "\u2581laboral": 6830,
  "\u2581p\u00e9rdida": 6831,
  "\u2581recurso": 6832,
  "ej": 6833,
  "hau": 6834,
  "laguntzak": 6835,
  "mbra": 6836,
  "\u2581Esteban": 6837,
  "\u2581ekonomikoa": 6838,
  "\u2581frase": 6839,
  "\u2581morroi": 6840,
  "/10": 6841,
  "oz": 6842,
  "ult": 6843,
  "uta": 6844,
  "\u2581Garraio": 6845,
  "\u2581Horiek": 6846,
  "\u2581Nicol\u00e1s": 6847,
  "\u2581Parroquia": 6848,
  "\u2581bidaliko": 6849,
  "\u2581fisiko": 6850,
  "\u2581historian": 6851,
  "\u2581igotzen": 6852,
  "\u2581nacional": 6853,
  "\u2581oraingo": 6854,
  "Net": 6855,
  "tiz": 6856,
  "\u2581Casi": 6857,
  "\u2581L\u00f3pez": 6858,
  "\u2581celebrar": 6859,
  "\u2581forman": 6860,
  "\u2581lirateke": 6861,
  "\\.": 6862,
  "lip": 6863,
  "\u2581constante": 6864,
  "\u2581desira": 6865,
  "\u2581egoeraren": 6866,
  "und": 6867,
  "\u2581Angel": 6868,
  "\u2581bonito": 6869,
  "\u2581kotxe": 6870,
  "\u2581Ay": 6871,
  "\u2581A\u00f1adir": 6872,
  "\u2581Col": 6873,
  "\u2581bista": 6874,
  "\u2581cumplimiento": 6875,
  "\u2581disko": 6876,
  "\u2581encontr\u00e9": 6877,
  "\u2581gidatu": 6878,
  "\u2581gizartearen": 6879,
  "\u2581organiza": 6880,
  "Bo": 6881,
  "\u2581Nu": 6882,
  "\u2581olor": 6883,
  "\u2581quiz\u00e1s": 6884,
  "\u2581taxi": 6885,
  "\u2581Quer\u00eda": 6886,
  "\u2581prozesua": 6887,
  "t\u00eda": 6888,
  "\u00e1ndolo": 6889,
  "\u2581Espainia": 6890,
  "\u2581afuera": 6891,
  "\u2581conceptos": 6892,
  "\u2581Finantza": 6893,
  "\u2581Lagundu": 6894,
  "\u2581NO": 6895,
  "\u2581duguna": 6896,
  "\u2581lodi": 6897,
  "\u2581trabajadores": 6898,
  "48": 6899,
  "ador": 6900,
  "\u2581dizute": 6901,
  "\u2581fines": 6902,
  "\u2581kan": 6903,
  "rengandik": 6904,
  "tismo": 6905,
  "xu": 6906,
  "\u2581fede": 6907,
  "\u2581onartuko": 6908,
  "\u2581pel\u00edculas": 6909,
  "\u2581siguen": 6910,
  "\u2581absoluta": 6911,
  "\u2581esate": 6912,
  "\u2581neurrian": 6913,
  "\u2581pantalla": 6914,
  "\u2581pareja": 6915,
  "ter\u00eda": 6916,
  "\u2581Anna": 6917,
  "\u2581arreba": 6918,
  "\u2581babesteko": 6919,
  "\u2581sartuta": 6920,
  "Esto": 6921,
  "\u2581Oharra": 6922,
  "\u2581dominio": 6923,
  "\u2581iraupena": 6924,
  "-20": 6925,
  "sur": 6926,
  "tte": 6927,
  "\u2581Castle": 6928,
  "\u2581aplikazio": 6929,
  "\u2581besteen": 6930,
  "\u2581oinaze": 6931,
  "To": 6932,
  "ai": 6933,
  "\u2581Forma": 6934,
  "\u2581Harri": 6935,
  "\u2581Odette": 6936,
  "\u2581badaude": 6937,
  "\u2581errepide": 6938,
  "\u2581hesi": 6939,
  "\u2581kopia": 6940,
  "\u2581mensajes": 6941,
  "\u2581nacido": 6942,
  "\u2581of": 6943,
  "\u2581sufrir": 6944,
  "\u2581trago": 6945,
  "\u2581zinela": 6946,
  "MEN": 6947,
  "toki": 6948,
  "\u2581comunes": 6949,
  "\u2581diario": 6950,
  "\u2581evento": 6951,
  "\u2581quince": 6952,
  "\u2581zintzo": 6953,
  "ciendo": 6954,
  "gaz": 6955,
  "\u2581Richard": 6956,
  "\u2581Saria": 6957,
  "\u2581balego": 6958,
  "\u2581compa\u00f1ero": 6959,
  "\u2581conservaci\u00f3n": 6960,
  "\u2581etengabeko": 6961,
  "\u2581norberaren": 6962,
  "ell": 6963,
  "\u2581Ingeniero": 6964,
  "\u2581artikulua": 6965,
  "\u2581crecimiento": 6966,
  "\u2581desgracia": 6967,
  "\u2581ederki": 6968,
  "\u258117:00": 6969,
  "\u2581crea": 6970,
  "\u2581dejaba": 6971,
  "lum": 6972,
  "nica": 6973,
  "tino": 6974,
  "\u2581Pri": 6975,
  "\u2581bezero": 6976,
  "\u2581dizugu": 6977,
  "\u2581herramienta": 6978,
  "\u2581merece": 6979,
  "\u2581murriztu": 6980,
  "\u2581nave": 6981,
  "\u2581zinez": 6982,
  "gura": 6983,
  "\u2581PUZ": 6984,
  "\u2581berriaren": 6985,
  "\u2581operaci\u00f3n": 6986,
  "\u2581port\u00e1til": 6987,
  "\u2581terraza": 6988,
  "\u2581vano": 6989,
  "\u2581aipatutako": 6990,
  "\u2581arrain": 6991,
  "\u2581arras": 6992,
  "\u2581dutelako": 6993,
  "\u2581itzultzeko": 6994,
  "\u2581zeregin": 6995,
  "l\u00ed": 6996,
  "\u2581Haien": 6997,
  "\u2581aukerarik": 6998,
  "\u2581mantenimiento": 6999,
  "\u2581oinarritutako": 7000,
  "\u2581ondorioak": 7001,
  "erta": 7002,
  "gado": 7003,
  "isten": 7004,
  "kizun": 7005,
  "\u2581Ezagutzen": 7006,
  "\u2581India": 7007,
  "\u2581bakoitzari": 7008,
  "\u2581cuestiones": 7009,
  "\u2581multi": 7010,
  "\u2581ritmo": 7011,
  "\u2581tecnolog\u00eda": 7012,
  "\u2581tratado": 7013,
  "cida": 7014,
  "tivas": 7015,
  "ville": 7016,
  "\u2581firme": 7017,
  "\u2581jakintza": 7018,
  "\u2581lector": 7019,
  "\u2581mi\u00e9rcoles": 7020,
  "\u2581ohore": 7021,
  "\u2581traba": 7022,
  "lus": 7023,
  "\u2581(2010": 7024,
  "\u2581adimen": 7025,
  "\u2581lanaren": 7026,
  "\u2581tranquilo": 7027,
  "\u2581unean": 7028,
  "\u2581volv\u00eda": 7029,
  "\u2581xedea": 7030,
  "ment": 7031,
  "\u2581Sra": 7032,
  "\u2581hiciera": 7033,
  "\u2581lizentzia": 7034,
  "\u2581reales": 7035,
  "eros": 7036,
  "gna": 7037,
  "ini": 7038,
  "ratzen": 7039,
  "\u2581halaxe": 7040,
  "\u2581hildako": 7041,
  "\u2581Jorge": 7042,
  "\u2581banintz": 7043,
  "\u2581fuentes": 7044,
  "\u2581gaztelu": 7045,
  "\u2581horiekin": 7046,
  "\u2581zenuela": 7047,
  "plan": 7048,
  "\u2581Hamar": 7049,
  "\u2581Has": 7050,
  "\u2581Lasarte": 7051,
  "\u2581diegu": 7052,
  "\u2581fila": 7053,
  "\u2581incluye": 7054,
  "\u2581independiente": 7055,
  "\u2581ostatu": 7056,
  "\u2581sen": 7057,
  "\u2581siller\u00eda": 7058,
  "\u2581zutabe": 7059,
  "\u2581Acci\u00f3n": 7060,
  "\u2581aprendizaje": 7061,
  "\u2581bor": 7062,
  "\u2581comprobar": 7063,
  "\u2581cuarenta": 7064,
  "\u2581proba": 7065,
  "\u2581sua": 7066,
  "dministraciones": 7067,
  "\u2581extranjero": 7068,
  "\u2581lotsa": 7069,
  "\u2581nahastu": 7070,
  "\u2581zerikusia": 7071,
  "\u2581Izena": 7072,
  "\u2581Mrs": 7073,
  "\u2581dutenean": 7074,
  "\u2581paredes": 7075,
  "VI": 7076,
  "\u258113:00": 7077,
  "\u2581PRO": 7078,
  "\u2581Puedo": 7079,
  "\u2581anderea": 7080,
  "\u2581ditzakezu": 7081,
  "\u2581gizakia": 7082,
  "\u2581miles": 7083,
  "\u2581segur": 7084,
  "\u2581Den": 7085,
  "\u2581asistencia": 7086,
  "\u2581cristal": 7087,
  "\u2581euri": 7088,
  "\u2581existentzia": 7089,
  "\u2581jolas": 7090,
  "Nor": 7091,
  "contest\u00f3": 7092,
  "\u2581Muchas": 7093,
  "\u2581errepikatu": 7094,
  "\u2581instalazio": 7095,
  "\u2581inteligencia": 7096,
  "\u2581peri\u00f3dico": 7097,
  "\u2581permanente": 7098,
  "\u2581residuos": 7099,
  "\u2581soporte": 7100,
  "Noticia": 7101,
  "\u2581Elkar": 7102,
  "\u2581certificado": 7103,
  "\u2581lehia": 7104,
  "\u2581leun": 7105,
  "\u2581nabari": 7106,
  "\u2581numerosas": 7107,
  "\u2581partaidetza": 7108,
  "\u2581viejos": 7109,
  "Tiene": 7110,
  "\u2581Scrooge": 7111,
  "\u2581foru": 7112,
  "\u2581funtsezko": 7113,
  "\u2581pr\u00e1cticas": 7114,
  "\u2581sue\u00f1os": 7115,
  "\u2581zenidan": 7116,
  "mba": 7117,
  "\u2581afaria": 7118,
  "\u2581comportamiento": 7119,
  "\u2581excelente": 7120,
  "\u2581maleta": 7121,
  "teak": 7122,
  "\u2581Are": 7123,
  "\u2581Nolanahi": 7124,
  "\u2581autores": 7125,
  "\u2581betetzea": 7126,
  "\u2581imperio": 7127,
  "\u2581pilota": 7128,
  "\u2581verte": 7129,
  "\u2581zeuk": 7130,
  "\u2581zuzendaritza": 7131,
  "Ezin": 7132,
  "pero": 7133,
  "ztatu": 7134,
  "\u258105:00-": 7135,
  "\u2581Formaci\u00f3n": 7136,
  "\u2581llamaba": 7137,
  "\u2581maestro": 7138,
  "\u2581producir": 7139,
  "ibar": 7140,
  "\u2581Am": 7141,
  "\u2581daitekeela": 7142,
  "\u2581Autobuses": 7143,
  "\u2581Zaratustra": 7144,
  "\u2581galde": 7145,
  "\u2581generalmente": 7146,
  "\u2581LAS": 7147,
  "\u2581Xabier": 7148,
  "\u2581besteko": 7149,
  "\u2581bisitari": 7150,
  "\u2581hazten": 7151,
  "\u2581kolpe": 7152,
  "\u2581precisa": 7153,
  "\u2581umeak": 7154,
  "\u2581zarata": 7155,
  "\u2581gustuko": 7156,
  "\u2581lukete": 7157,
  "\u2581Oinarri": 7158,
  "\u2581aditzera": 7159,
  "\u2581bira": 7160,
  "\u2581cuidar": 7161,
  "\u2581hautatutako": 7162,
  "\u2581maneras": 7163,
  "\u2581ponerse": 7164,
  "98": 7165,
  "orde": 7166,
  "\u2581Emma": 7167,
  "\u2581alderantziz": 7168,
  "\u2581amar": 7169,
  "\u2581atari": 7170,
  "\u2581azkeneko": 7171,
  "\u2581entero": 7172,
  "\u2581instrumento": 7173,
  "\u2581pauso": 7174,
  "\u2581salbu": 7175,
  "mus": 7176,
  "nahi": 7177,
  "\u2581ibilbidea": 7178,
  "\u2581ikasteko": 7179,
  "\u2581perfecta": 7180,
  "\u2581re\u00edr": 7181,
  "Tra": 7182,
  "\u2581Hauek": 7183,
  "\u2581aldia": 7184,
  "\u2581caza": 7185,
  "\u2581escenario": 7186,
  "\u2581pidi\u00f3": 7187,
  "\u2581relieve": 7188,
  "ntza": 7189,
  "uda": 7190,
  "\u2581Bre": 7191,
  "\u2581Erabiltzaile": 7192,
  "\u2581Trans": 7193,
  "\u2581azalera": 7194,
  "\u2581kate": 7195,
  "\u2581roja": 7196,
  "\u2581ugaria": 7197,
  "erra": 7198,
  "retako": 7199,
  "\u2581Bennet": 7200,
  "\u2581Europan": 7201,
  "\u2581convierte": 7202,
  "\u2581datoz": 7203,
  "\u2581tratu": 7204,
  "Has": 7205,
  "\u2581altxa": 7206,
  "\u2581auzoko": 7207,
  "\u2581diamante": 7208,
  "\u2581estutu": 7209,
  "\u2581ohorea": 7210,
  "\u2581preparado": 7211,
  "\u2581soberano": 7212,
  "\u2581teor\u00eda": 7213,
  "Bien": 7214,
  "\u00c3": 7215,
  "\u2581Aukeratu": 7216,
  "\u2581SE": 7217,
  "\u2581arab": 7218,
  "\u2581heziketa": 7219,
  "\u2581hilketa": 7220,
  "\u2581pertsonal": 7221,
  "di\u00f3": 7222,
  "mm": 7223,
  "\u2581Atzera": 7224,
  "\u2581alboan": 7225,
  "\u2581gustaba": 7226,
  "\u2581koroa": 7227,
  "\u2581santu": 7228,
  "\u2581Pulse": 7229,
  "\u2581ingurune": 7230,
  "\u2581leche": 7231,
  "\u2581mintzo": 7232,
  "\u2581osoaren": 7233,
  "Tira": 7234,
  "adi": 7235,
  "ct": 7236,
  "gur": 7237,
  "\u2581M\u00fasica": 7238,
  "\u2581equipos": 7239,
  "\u2581familiares": 7240,
  "\u2581indarrez": 7241,
  "\u2581inporta": 7242,
  "\u2581orria": 7243,
  "\u2581pin": 7244,
  "\u2581presupuesto": 7245,
  "\u2581zukeen": 7246,
  "pare": 7247,
  "\u2581Norma": 7248,
  "\u2581Zazpi": 7249,
  "\u2581beroa": 7250,
  "\u2581realizada": 7251,
  "\u2581vigor": 7252,
  "96": 7253,
  "gro": 7254,
  "\u2581Miniaplicaci\u00f3n": 7255,
  "\u2581Nahikoa": 7256,
  "\u2581Teknologia": 7257,
  "\u2581bella": 7258,
  "\u2581escritor": 7259,
  "\u2581llegue": 7260,
  "EL": 7261,
  "arrak": 7262,
  "\u2581Primero": 7263,
  "\u2581Seguro": 7264,
  "\u2581ateak": 7265,
  "\u2581depende": 7266,
  "\u2581lapurtu": 7267,
  "Pi": 7268,
  "ord": 7269,
  "\u25813.-": 7270,
  "\u2581berr": 7271,
  "\u2581munduaren": 7272,
  "\u2581zatoz": 7273,
  "\u2581Tour": 7274,
  "\u2581autob\u00fas": 7275,
  "\u2581escala": 7276,
  "\u2581harturik": 7277,
  "\u2581organismo": 7278,
  "\u2581resolver": 7279,
  "\u258112:00": 7280,
  "\u2581Alda": 7281,
  "\u2581Concurso": 7282,
  "\u2581areago": 7283,
  "eremu": 7284,
  "\u2581berdinak": 7285,
  "\u2581buruak": 7286,
  "\u2581edukiko": 7287,
  "\u2581eskatuko": 7288,
  "\u2581jornadas": 7289,
  "\u2581recoge": 7290,
  "ller": 7291,
  "tio": 7292,
  "\u2581Mexiko": 7293,
  "\u2581deituko": 7294,
  "\u2581ek": 7295,
  "\u2581municipios": 7296,
  "zca": 7297,
  "\u2581abrigo": 7298,
  "\u2581blancos": 7299,
  "\u2581buruzagi": 7300,
  "\u2581ikasleak": 7301,
  "\u2581itsaskorrak": 7302,
  "\u2581obrak": 7303,
  "\u2581temporada": 7304,
  "vas": 7305,
  "\u2581Oeste": 7306,
  "\u2581afirma": 7307,
  "\u2581burutik": 7308,
  "\u2581gesto": 7309,
  "\u2581irla": 7310,
  "\u2581tonto": 7311,
  "\u2581Lord": 7312,
  "\u2581Todav\u00eda": 7313,
  "\u2581combate": 7314,
  "\u2581danzas": 7315,
  "\u2581milaka": 7316,
  "\u2581misi\u00f3n": 7317,
  "\u2581oihal": 7318,
  "\u2581ordainduko": 7319,
  "\u2581ospatzen": 7320,
  "bizi": 7321,
  "if": 7322,
  "\u2581Kristo": 7323,
  "\u2581individuos": 7324,
  "\u2581muros": 7325,
  "\u2581zakar": 7326,
  "AS": 7327,
  "GI": 7328,
  "egoera": 7329,
  "egun": 7330,
  "\u2581Atera": 7331,
  "\u2581Far": 7332,
  "\u2581adquirir": 7333,
  "\u2581politikoa": 7334,
  "34": 7335,
  "85": 7336,
  "\u2581Alicia": 7337,
  "\u2581Monitor": 7338,
  "\u2581Wi": 7339,
  "\u2581betetako": 7340,
  "\u2581expresa": 7341,
  "\u2581mediku": 7342,
  "asqueresearch": 7343,
  "d\u00e9": 7344,
  "\u2581competencia": 7345,
  "\u2581kil\u00f3metros": 7346,
  "\u2581konpromisoa": 7347,
  "\u2581laguntzaile": 7348,
  "\u2581talleres": 7349,
  "amente": 7350,
  "pal": 7351,
  "\u2581Israel": 7352,
  "\u2581Parrokia": 7353,
  "\u2581artesano": 7354,
  "\u2581badaki": 7355,
  "\u2581bederen": 7356,
  "\u2581corazones": 7357,
  "\u2581eskuragarri": 7358,
  "\u2581frantsesa": 7359,
  "\u2581hitzik": 7360,
  "\u2581normativa": 7361,
  "\u2581ocupa": 7362,
  "rla": 7363,
  "\u00c9": 7364,
  "\u2581Mark": 7365,
  "\u2581ase": 7366,
  "\u2581comenzar": 7367,
  "\u2581convenio": 7368,
  "\u2581pentsatzea": 7369,
  "\u2581rico": 7370,
  "\u2581rodillas": 7371,
  "\u2581viv\u00eda": 7372,
  "\u2581Aire": 7373,
  "\u2581Gasteizko": 7374,
  "\u2581apertura": 7375,
  "\u2581compa\u00f1eros": 7376,
  "\u2581corre": 7377,
  "\u2581due\u00f1o": 7378,
  "\u2581edaten": 7379,
  "\u2581jendearen": 7380,
  "\u2581regreso": 7381,
  "\u2581verg\u00fcenza": 7382,
  "\u2581zaintzen": 7383,
  "bilidad": 7384,
  "pas": 7385,
  "\u2581Comunicaci\u00f3n": 7386,
  "\u2581IDAE": 7387,
  "\u2581aitzakia": 7388,
  "\u2581bailar": 7389,
  "\u2581guarda": 7390,
  "\u2581justizia": 7391,
  "\u2581oinarritzen": 7392,
  "\u2581osaba": 7393,
  "\u2581perspectiva": 7394,
  "\u2581publicado": 7395,
  "fre": 7396,
  "ima": 7397,
  "\u2581Concierto": 7398,
  "\u2581ikasleek": 7399,
  "\u00e7ue": 7400,
  "\u2581Mejor": 7401,
  "\u2581erlazio": 7402,
  "\u2581erresuma": 7403,
  "\u2581sent\u00f3": 7404,
  "\u2581zorro": 7405,
  "Berria": 7406,
  "\u2581Q": 7407,
  "\u2581ahoa": 7408,
  "\u2581conveniente": 7409,
  "\u2581haberse": 7410,
  "\u2581mantentzen": 7411,
  "\u2581posee": 7412,
  "\u2581presentan": 7413,
  "\u2581sabido": 7414,
  "\u2581150": 7415,
  "\u2581Begi": 7416,
  "\u2581Center": 7417,
  "\u2581harresi": 7418,
  "\u2581kalitate": 7419,
  "\u2581txartela": 7420,
  "mil": 7421,
  "\u2581bola": 7422,
  "\u2581cualidades": 7423,
  "\u2581jatetxe": 7424,
  "\u2581sexu": 7425,
  "\u2581topatu": 7426,
  "\u2581vender": 7427,
  "\u2581eguin": 7428,
  "\u2581landaretza": 7429,
  "\u2581ruta": 7430,
  "\u2581Etxearen": 7431,
  "\u2581begien": 7432,
  "\u2581contiene": 7433,
  "\u2581cuerda": 7434,
  "\u2581estar\u00e1n": 7435,
  "\u2581funciona": 7436,
  "\u2581gera": 7437,
  "ah": 7438,
  "\u2581Hirigintza": 7439,
  "\u2581agenda": 7440,
  "\u2581autoa": 7441,
  "\u2581cm": 7442,
  "\u2581enlace": 7443,
  "latin": 7444,
  "\u2581Ir": 7445,
  "\u2581Simone": 7446,
  "\u2581arriskuan": 7447,
  "\u2581duquesa": 7448,
  "\u2581ibaia": 7449,
  "\u2581kapela": 7450,
  "\u2581luzera": 7451,
  "\u2581martes": 7452,
  "\u2581oharrak": 7453,
  "zten": 7454,
  "\u2581EE": 7455,
  "\u2581Ke": 7456,
  "\u2581Qui": 7457,
  "\u2581dien": 7458,
  "\u2581duzunean": 7459,
  "\u2581preparar": 7460,
  "ves": 7461,
  "\u2581Gehitu": 7462,
  "\u2581didan": 7463,
  "\u2581previa": 7464,
  "\u2581Bajo": 7465,
  "\u2581Laura": 7466,
  "\u2581aprobado": 7467,
  "\u2581concesi\u00f3n": 7468,
  "\u2581empieza": 7469,
  "\u2581ense\u00f1ar": 7470,
  "\u2581helburuak": 7471,
  "\u2581kontzertu": 7472,
  "\u2581nabil": 7473,
  "\u2581urbano": 7474,
  "\u2581accidente": 7475,
  "\u2581daukate": 7476,
  "\u2581estaltzen": 7477,
  "\u2581genial": 7478,
  "\u2581poesia": 7479,
  "\u2581tortura": 7480,
  "Hau": 7481,
  "egui": 7482,
  "eh": 7483,
  "\u2581Hasi": 7484,
  "zulo": 7485,
  "\u2581Felipe": 7486,
  "\u2581Parisen": 7487,
  "\u2581escolares": 7488,
  "\u2581mutila": 7489,
  "\u2581socio": 7490,
  "\u2581Udaleko": 7491,
  "\u2581altxatzen": 7492,
  "\u2581arrunta": 7493,
  "\u2581handien": 7494,
  "\u2581inco": 7495,
  "\u2581\u00f3rgano": 7496,
  "oli": 7497,
  "\u2581antolatutako": 7498,
  "\u2581beteko": 7499,
  "\u2581experiencias": 7500,
  "\u2581muchachos": 7501,
  "\u2581usa": 7502,
  "Ro": 7503,
  "chu": 7504,
  "c\u00ed": 7505,
  "\u00fc": 7506,
  "\u2581Bol": 7507,
  "\u2581Sailak": 7508,
  "\u2581Zona": 7509,
  "\u2581descubierto": 7510,
  "\u2581doi": 7511,
  "\u2581eskatzeko": 7512,
  "\u2581francos": 7513,
  "\u2581gurpil": 7514,
  "\u2581gu\u00eda": 7515,
  "\u2581portugu\u00e9s": 7516,
  "\u2581sortuko": 7517,
  "\u2581tecnolog\u00edas": 7518,
  "-:": 7519,
  "97": 7520,
  "fil": 7521,
  "\u2581Erkidegoko": 7522,
  "\u2581bulego": 7523,
  "\u2581handiago": 7524,
  "\u2581movilidad": 7525,
  "\u2581zirenak": 7526,
  "32": 7527,
  "Estoy": 7528,
  "ire": 7529,
  "rie": 7530,
  "\u25811998": 7531,
  "\u2581Sei": 7532,
  "\u2581bal": 7533,
  "\u2581copa": 7534,
  "\u2581obrar": 7535,
  "\u2581Kor": 7536,
  "\u2581bekatu": 7537,
  "\u2581doy": 7538,
  "\u2581m\u00e1xima": 7539,
  "\u2581nahitaez": 7540,
  "\u2581pala": 7541,
  "\u2581parke": 7542,
  "\u2581t\u00e9cnico": 7543,
  "45": 7544,
  "Quiere": 7545,
  "cien": 7546,
  "ume": 7547,
  "\u2581Eugenia": 7548,
  "\u2581Fernando": 7549,
  "\u2581burdin": 7550,
  "\u2581cuantos": 7551,
  "\u2581entiende": 7552,
  "\u2581facultad": 7553,
  "\u2581men": 7554,
  "\u2581mintzatzen": 7555,
  "\u2581soluci\u00f3n": 7556,
  "cito": 7557,
  "fica": 7558,
  "ica": 7559,
  "port": 7560,
  "\u2581Adibidez": 7561,
  "\u2581Saiatu": 7562,
  "\u2581ahizpa": 7563,
  "\u2581demonios": 7564,
  "\u2581digas": 7565,
  "\u2581dun": 7566,
  "\u2581galduko": 7567,
  "\u2581gauez": 7568,
  "\u2581gorako": 7569,
  "\u2581horrenbeste": 7570,
  "dela": 7571,
  "ntz": 7572,
  "\u2581Obras": 7573,
  "\u2581asiento": 7574,
  "\u2581gaixotasun": 7575,
  "\u2581verse": 7576,
  "\u2581Tro": 7577,
  "\u2581beb\u00e9": 7578,
  "\u2581guztietatik": 7579,
  "\u2581jaiki": 7580,
  "\u2581jaunari": 7581,
  "\u2581klima": 7582,
  "\u2581lanzar": 7583,
  "\u2581ordain": 7584,
  "\u2581seno": 7585,
  "icio": 7586,
  "pain": 7587,
  "rdi": 7588,
  "\u2581C\u00e9sar": 7589,
  "\u2581Leiho": 7590,
  "\u2581Poli": 7591,
  "idos": 7592,
  "\u2581Escucha": 7593,
  "\u2581Hall": 7594,
  "\u2581Honen": 7595,
  "\u2581Trabajo": 7596,
  "\u2581medicina": 7597,
  "\u2581pecado": 7598,
  "\u2581poca": 7599,
  "\u2581servidor": 7600,
  "\u2581txoko": 7601,
  "star": 7602,
  "\u2581Ayudas": 7603,
  "\u2581Zerbitzuak": 7604,
  "\u2581elaboraci\u00f3n": 7605,
  "\u2581gauzatu": 7606,
  "\u2581irakaskuntza": 7607,
  "\u2581jurado": 7608,
  "\u2581luces": 7609,
  "tatzeko": 7610,
  "\u2581105": 7611,
  "\u258136": 7612,
  "\u2581conviene": 7613,
  "\u2581coro": 7614,
  "\u2581ipuin": 7615,
  "\u2581m\u00e9todo": 7616,
  "\u2581necesarios": 7617,
  "\u2581vol": 7618,
  "tun": 7619,
  "\u2581Energ\u00eda": 7620,
  "\u2581Pleno": 7621,
  "\u2581emperador": 7622,
  "\u2581mesede": 7623,
  "\u2581sustatzea": 7624,
  "\u2581Eguneratze": 7625,
  "\u2581XXI": 7626,
  "\u2581camisa": 7627,
  "\u2581estrecha": 7628,
  "\u2581gaiak": 7629,
  "\u2581inguratu": 7630,
  "\u2581Alemana": 7631,
  "\u2581VII": 7632,
  "\u2581directa": 7633,
  "\u2581egunez": 7634,
  "\u2581marra": 7635,
  "\u2581prezio": 7636,
  "\u2581arrazoiak": 7637,
  "\u2581esfuerzos": 7638,
  "\u2581hondo": 7639,
  "\u2581inteligente": 7640,
  "\u2581komeni": 7641,
  "\u2581zigorra": 7642,
  "ral": 7643,
  "tuen": 7644,
  "\u258105:00)": 7645,
  "\u2581Gabriel": 7646,
  "\u2581Vaya": 7647,
  "\u2581erakundeak": 7648,
  "\u2581establece": 7649,
  "\u2581igarotzen": 7650,
  "\u2581nirea": 7651,
  "\u2581Hist\u00f3rico": 7652,
  "\u2581Pas": 7653,
  "\u2581abentura": 7654,
  "\u2581adecuado": 7655,
  "\u2581ai": 7656,
  "\u2581c\u00edrculo": 7657,
  "\u2581gozatu": 7658,
  "\u2581ikustean": 7659,
  "\u2581posterior": 7660,
  "\u2581reuniones": 7661,
  "\u2581sencillo": 7662,
  "\u2581tomando": 7663,
  "\u2581Elkartea": 7664,
  "\u2581Gregorio": 7665,
  "\u2581baitut": 7666,
  "\u2581batzuei": 7667,
  "\u2581consultar": 7668,
  "\u2581instituci\u00f3n": 7669,
  "\u2581parean": 7670,
  "\u2581remedio": 7671,
  "KA": 7672,
  "hur": 7673,
  "taci\u00f3n": 7674,
  "\u2581Gradua": 7675,
  "\u2581Kan": 7676,
  "\u2581erregearen": 7677,
  "\u2581halere": 7678,
  "\u2581indartsua": 7679,
  "\u2581naciones": 7680,
  "\u2581orrialde": 7681,
  "\u2581zatia": 7682,
  "IL": 7683,
  "tima": 7684,
  "\u2581Facultad": 7685,
  "\u2581azalduko": 7686,
  "\u2581distinguir": 7687,
  "\u2581harritu": 7688,
  "\u2581kanpai": 7689,
  "\u2581kontsulta": 7690,
  "\u2581urtea": 7691,
  "\u2581Van": 7692,
  "\u2581donostiarra": 7693,
  "\u2581lanza": 7694,
  "\u2581pas": 7695,
  "\u2581sac\u00f3": 7696,
  "pos": 7697,
  "tto": 7698,
  "\u2581Frantziako": 7699,
  "\u2581R\u00edo": 7700,
  "\u2581conducir": 7701,
  "\u2581dituk": 7702,
  "\u2581elegido": 7703,
  "\u2581eskuineko": 7704,
  "\u2581gehienez": 7705,
  "\u2581ospatu": 7706,
  "\u2581profunda": 7707,
  "\u2581tristeza": 7708,
  "jan": 7709,
  "qui\u00e9n": 7710,
  "\u2581Ken": 7711,
  "\u2581ebaki": 7712,
  "ificaci\u00f3n": 7713,
  "\u2581Cruz": 7714,
  "\u2581Cuatro": 7715,
  "\u2581Edad": 7716,
  "\u2581Feria": 7717,
  "\u2581adierazteko": 7718,
  "\u2581criterios": 7719,
  "\u2581hondatu": 7720,
  "\u2581ohean": 7721,
  "43": 7722,
  "Conf": 7723,
  "beste": 7724,
  "stre": 7725,
  "\u2581At": 7726,
  "\u2581abesti": 7727,
  "\u2581bizimodu": 7728,
  "\u2581eventos": 7729,
  "\u2581goren": 7730,
  "\u2581niveles": 7731,
  "\u2581pendiente": 7732,
  "\u2581provincia": 7733,
  "\u2581requisitos": 7734,
  "Ho": 7735,
  "gara": 7736,
  "\u2581arloko": 7737,
  "\u2581caminos": 7738,
  "\u2581cu\u00e1ndo": 7739,
  "\u2581erregeak": 7740,
  "\u2581escolar": 7741,
  "\u2581facilitar": 7742,
  "\u2581hegal": 7743,
  "\u2581miseria": 7744,
  "\u2581salbatu": 7745,
  "\u2581techo": 7746,
  "Po": 7747,
  "toa": 7748,
  "tsuak": 7749,
  "\u2581Berdin": 7750,
  "\u2581aumentar": 7751,
  "\u2581beltzak": 7752,
  "\u2581bilduko": 7753,
  "\u2581biziki": 7754,
  "\u2581larru": 7755,
  "\u2581ospakizun": 7756,
  "\u2581suave": 7757,
  "\u2581txarrak": 7758,
  "\u2581txikiko": 7759,
  "\u2581untzi": 7760,
  "t\u00e1": 7761,
  "\u00e8": 7762,
  "\u2581C\u00f3mo": 7763,
  "\u2581Formatu": 7764,
  "\u2581antzekoa": 7765,
  "\u2581botoia": 7766,
  "\u2581caliente": 7767,
  "\u2581galera": 7768,
  "\u2581intervenci\u00f3n": 7769,
  "\u2581letras": 7770,
  "\u2581sekretu": 7771,
  "RES": 7772,
  "tzar": 7773,
  "\u2581Bio": 7774,
  "\u2581Ezabatu": 7775,
  "\u2581Podr\u00eda": 7776,
  "\u2581ataque": 7777,
  "\u2581aurkitzea": 7778,
  "\u2581boto": 7779,
  "\u2581debate": 7780,
  "\u2581ibiliko": 7781,
  "\u2581jateko": 7782,
  "\u2581nintzateke": 7783,
  "\u2581osatuta": 7784,
  "Go": 7785,
  "pio": 7786,
  "tario": 7787,
  "\u2581101": 7788,
  "\u2581artea": 7789,
  "\u2581baliabideak": 7790,
  "\u2581halakorik": 7791,
  "\u2581riqueza": 7792,
  "\u2581suelen": 7793,
  "aron": 7794,
  "vel": 7795,
  "\u258108": 7796,
  "\u2581Florent": 7797,
  "\u2581Jaurlaritza": 7798,
  "\u2581Mende": 7799,
  "\u2581Zuek": 7800,
  "\u2581ausencia": 7801,
  "\u2581contemplar": 7802,
  "\u2581espejo": 7803,
  "\u2581festival": 7804,
  "\u2581habido": 7805,
  "\u2581http": 7806,
  "\u2581juntas": 7807,
  "\u2581ospatzeko": 7808,
  "\u2581\u00f3rganos": 7809,
  "36": 7810,
  "i\u00f3": 7811,
  "\u2581Andy": 7812,
  "\u2581Beren": 7813,
  "\u2581Ob": 7814,
  "\u2581andre": 7815,
  "\u2581coste": 7816,
  "\u2581futbol": 7817,
  "\u2581hiltzeko": 7818,
  "\u2581poema": 7819,
  "ese": 7820,
  "lito": 7821,
  "\u00edsima": 7822,
  "\u2581Dorian": 7823,
  "\u2581Film": 7824,
  "\u2581Foro": 7825,
  "\u2581Pen": 7826,
  "\u2581aholku": 7827,
  "\u2581dioen": 7828,
  "\u2581iragarri": 7829,
  "\u2581kanta": 7830,
  "\u2581levantar": 7831,
  "\u2581oinarriak": 7832,
  "\u2581present\u00f3": 7833,
  "\u2581reci\u00e9n": 7834,
  "\u2581teknika": 7835,
  "pol": 7836,
  "\u2581Director": 7837,
  "\u2581linea": 7838,
  "\u2581llorar": 7839,
  "\u2581utz": 7840,
  "\u2581moldatu": 7841,
  "ion": 7842,
  "\u2581Ermuko": 7843,
  "\u2581Ume": 7844,
  "\u2581atxilotu": 7845,
  "\u2581baititu": 7846,
  "\u2581bases": 7847,
  "\u2581burla": 7848,
  "\u2581confi": 7849,
  "\u2581euskarri": 7850,
  "\u2581humanidad": 7851,
  "\u2581ikaragarria": 7852,
  "\u2581ikusle": 7853,
  "\u2581plater": 7854,
  "\u2581reducir": 7855,
  "\u2581super": 7856,
  "\u2581tor": 7857,
  "UPV": 7858,
  "dis": 7859,
  "tazio": 7860,
  "www": 7861,
  "\u2581Neu": 7862,
  "\u2581cadenas": 7863,
  "\u2581dauzka": 7864,
  "\u2581dotore": 7865,
  "\u2581ezpain": 7866,
  "\u2581poltsa": 7867,
  "ndar": 7868,
  "tasunean": 7869,
  "\u2581AP": 7870,
  "\u2581Aldizkari": 7871,
  "\u2581Korrika": 7872,
  "\u2581Sekula": 7873,
  "\u2581ingresos": 7874,
  "\u2581interesgarria": 7875,
  "\u2581lehendakari": 7876,
  "Mu": 7877,
  "elo": 7878,
  "\u2581Gora": 7879,
  "\u2581Guerra": 7880,
  "\u2581Registro": 7881,
  "\u2581ciudadana": 7882,
  "\u2581humo": 7883,
  "\u2581isuri": 7884,
  "\u2581\u00e1mbitos": 7885,
  "\u2581\u00e7uen": 7886,
  "erri": 7887,
  "\u2581Ahal": 7888,
  "\u2581aretoan": 7889,
  "\u2581contest\u00f3": 7890,
  "\u2581democracia": 7891,
  "\u2581funtzio": 7892,
  "\u2581necesitan": 7893,
  "met": 7894,
  "mita": 7895,
  "we": 7896,
  "\u2581Goiko": 7897,
  "\u2581Olentzero": 7898,
  "\u2581colegio": 7899,
  "\u2581kontrola": 7900,
  "\u2581pedido": 7901,
  "Esta": 7902,
  "ST": 7903,
  "\u2581Abrir": 7904,
  "\u2581Bestela": 7905,
  "\u2581batentzat": 7906,
  "\u2581bizian": 7907,
  "\u2581impulsar": 7908,
  "\u2581irakatsi": 7909,
  "\u2581ocultar": 7910,
  "\u2581protesta": 7911,
  "\u2581sorrera": 7912,
  "lis": 7913,
  "\u2581(17": 7914,
  "\u258132": 7915,
  "\u2581Brand": 7916,
  "\u2581DVD": 7917,
  "\u2581behe": 7918,
  "\u2581dakigu": 7919,
  "\u2581indi": 7920,
  "\u2581jasaten": 7921,
  "\u2581normalean": 7922,
  "\u2581pertsonala": 7923,
  "lado": 7924,
  "\u2581Artes": 7925,
  "\u2581elektroniko": 7926,
  "\u2581esperantza": 7927,
  "\u2581exposiciones": 7928,
  "\u2581garaiko": 7929,
  "\u2581orgullo": 7930,
  "\u2581zaiola": 7931,
  "arengatik": 7932,
  "\u2581Beldur": 7933,
  "\u2581Mueva": 7934,
  "\u2581Tokiko": 7935,
  "\u2581cubierto": 7936,
  "\u2581gelara": 7937,
  "\u2581inicia": 7938,
  "\u2581ocupado": 7939,
  "\u2581sexual": 7940,
  "\u2581tuyo": 7941,
  "jos": 7942,
  "\u2581Lluvia": 7943,
  "\u2581apareci\u00f3": 7944,
  "\u2581bicicleta": 7945,
  "\u2581etiqueta": 7946,
  "\u2581hondartza": 7947,
  "\u2581pesca": 7948,
  "\u2581publica": 7949,
  "\u2581zoriona": 7950,
  "\u00e1ndome": 7951,
  "\u2581Nieve": 7952,
  "\u2581Txi": 7953,
  "\u2581bala": 7954,
  "\u2581formula": 7955,
  "\u2581italiano": 7956,
  "\u2581kontura": 7957,
  "\u2581molesta": 7958,
  "\u2581Igualdad": 7959,
  "\u2581errenta": 7960,
  "\u2581fuertes": 7961,
  "\u2581mehe": 7962,
  "\u2581rango": 7963,
  "\u2581ru": 7964,
  "\u2581Zuen": 7965,
  "\u2581anda": 7966,
  "\u2581dirigir": 7967,
  "\u2581gaitasun": 7968,
  "\u2581guraso": 7969,
  "\u2581oinez": 7970,
  "\u2581quedar": 7971,
  "\u2581ulertzeko": 7972,
  "\u2581zurbil": 7973,
  "\u2581belar": 7974,
  "\u2581expresar": 7975,
  "\u2581laurden": 7976,
  "s\u00ed": 7977,
  "\u2581Salud": 7978,
  "\u2581ikusirik": 7979,
  "\u2581mendearen": 7980,
  "\u2581pelea": 7981,
  "\u2581quieras": 7982,
  "terra": 7983,
  "\u2581XI": 7984,
  "\u2581dizkizut": 7985,
  "\u2581llamo": 7986,
  "\u2581loca": 7987,
  "\u2581seguros": 7988,
  "\u2581vivido": 7989,
  "Pre": 7990,
  "argi": 7991,
  "tzeagatik": 7992,
  "\u2581Mike": 7993,
  "\u2581copia": 7994,
  "\u2581crimen": 7995,
  "\u2581hPa": 7996,
  "\u2581izateak": 7997,
  "\u2581izpiritu": 7998,
  "\u2581jokoa": 7999,
  "\u2581mediod\u00eda": 8000,
  "izan": 8001,
  "ps": 8002,
  "tista": 8003,
  "\u2581Econom\u00eda": 8004,
  "\u2581Tele": 8005,
  "\u2581aplikatu": 8006,
  "\u2581consulta": 8007,
  "\u2581eragindako": 8008,
  "\u2581eskuratzeko": 8009,
  "\u2581fondos": 8010,
  "\u2581inHg": 8011,
  "\u2581konfigurazio": 8012,
  "\u2581lokal": 8013,
  "\u2581nuenean": 8014,
  "99": 8015,
  "rama": 8016,
  "\u2581haberlo": 8017,
  "\u2581lorategi": 8018,
  "\u2581naiteke": 8019,
  "kera": 8020,
  "\u2581Sabes": 8021,
  "\u2581creen": 8022,
  "\u2581ezkutu": 8023,
  "\u2581pastel": 8024,
  "\u2581zinegotzi": 8025,
  "\u2581zuriak": 8026,
  "etaraino": 8027,
  "\u2581Victoria": 8028,
  "\u2581Wa": 8029,
  "\u2581ac\u00e1": 8030,
  "\u2581lacedemonios": 8031,
  "\u2581sacerdote": 8032,
  "\u2581uharte": 8033,
  "ekoak": 8034,
  "\u2581estrella": 8035,
  "\u2581gurutzatu": 8036,
  "\u2581guztiok": 8037,
  "\u2581hortaz": 8038,
  "\u2581irrika": 8039,
  "\u2581zuzendutako": 8040,
  "fina": 8041,
  "nada": 8042,
  "reo": 8043,
  "\u2581(4": 8044,
  "\u2581Incluso": 8045,
  "\u2581Zubi": 8046,
  "\u2581aurtengo": 8047,
  "\u2581existir": 8048,
  "\u2581o\u00ed": 8049,
  "\u2581personajes": 8050,
  "\u2581pr\u00f3ximos": 8051,
  "\u2581santo": 8052,
  "-12": 8053,
  "antes": 8054,
  "ty": 8055,
  "\u2581Bra": 8056,
  "\u2581Finalmente": 8057,
  "\u2581Gara": 8058,
  "\u2581Zinema": 8059,
  "\u2581broma": 8060,
  "\u2581ejemplos": 8061,
  "\u2581propiedades": 8062,
  "\u2581vivos": 8063,
  "eren": 8064,
  "ford": 8065,
  "\u2581BAT": 8066,
  "\u2581ab": 8067,
  "\u2581astun": 8068,
  "\u2581ca\u00eddo": 8069,
  "\u2581col": 8070,
  "\u2581ejecutar": 8071,
  "\u2581gustan": 8072,
  "\u2581infinito": 8073,
  "\u2581nace": 8074,
  "\u2581podr\u00edamos": 8075,
  "\u2581regalo": 8076,
  "\u2581rodeado": 8077,
  "NO": 8078,
  "dala": 8079,
  "damente": 8080,
  "hemenka": 8081,
  "\u258116:00": 8082,
  "\u2581Algunas": 8083,
  "\u2581Solicitud": 8084,
  "\u2581aventura": 8085,
  "\u2581bikoitza": 8086,
  "\u2581erabilitako": 8087,
  "\u2581explicaci\u00f3n": 8088,
  "\u2581ezezagun": 8089,
  "\u2581fama": 8090,
  "\u2581iezadazu": 8091,
  "\u2581procede": 8092,
  "rias": 8093,
  "\u2581T\u00e9cnica": 8094,
  "\u2581amaieran": 8095,
  "\u2581gainditzen": 8096,
  "\u2581guztiekin": 8097,
  "\u2581izateaz": 8098,
  "\u2581kontuak": 8099,
  "\u2581naturala": 8100,
  "rok": 8101,
  "\u2581Ant": 8102,
  "\u2581diola": 8103,
  "\u2581direlarik": 8104,
  "\u2581encanta": 8105,
  "\u2581errepublika": 8106,
  "\u2581hondakin": 8107,
  "\u2581simples": 8108,
  "\u2581utzita": 8109,
  "age": 8110,
  "rd": 8111,
  "rico": 8112,
  "\u2581\"%": 8113,
  "\u2581Proiektu": 8114,
  "\u2581Salvador": 8115,
  "\u2581au": 8116,
  "\u2581eraikitzeko": 8117,
  "\u2581opera": 8118,
  "\u2581vac\u00eda": 8119,
  "2010": 8120,
  "gram": 8121,
  "\u2581Itxura": 8122,
  "\u2581baitzegoen": 8123,
  "\u2581denaren": 8124,
  "\u2581esaldi": 8125,
  "!-": 8126,
  "aldaketa": 8127,
  "ting": 8128,
  "\u2581Arma": 8129,
  "\u2581Egon": 8130,
  "\u2581Usa": 8131,
  "\u2581horietatik": 8132,
  "\u2581lasterka": 8133,
  "eten": 8134,
  "\u2581Sant": 8135,
  "\u2581erra": 8136,
  "\u2581escribi\u00f3": 8137,
  "\u2581ezti": 8138,
  "\u2581gutuna": 8139,
  "\u2581interesado": 8140,
  "\u2581intervalo": 8141,
  "\u2581mezua": 8142,
  "\u2581romper": 8143,
  "arse": 8144,
  "ego": 8145,
  "\u25811997": 8146,
  "\u2581Carga": 8147,
  "\u2581Polizia": 8148,
  "\u2581aginte": 8149,
  "\u2581analizar": 8150,
  "\u2581mantendu": 8151,
  "\u2581nahasten": 8152,
  "\u2581producido": 8153,
  "\u2581uni\u00f3n": 8154,
  "\u2581zaitezte": 8155,
  "\u2581atxiki": 8156,
  "\u2581ditzake": 8157,
  "\u2581erne": 8158,
  "\u2581ezartzea": 8159,
  "\u2581hobetu": 8160,
  "\u2581urruti": 8161,
  "icia": 8162,
  "\u2581Baja": 8163,
  "\u2581Preferencias": 8164,
  "\u2581berreskuratu": 8165,
  "\u2581gaituzte": 8166,
  "\u2581jarraipena": 8167,
  "\u2581maldita": 8168,
  "\u2581restos": 8169,
  "\u2581superiores": 8170,
  "oc": 8171,
  "\u2581Batzorde": 8172,
  "\u2581Bero": 8173,
  "\u2581et": 8174,
  "\u2581historias": 8175,
  "\u2581infraestructura": 8176,
  "\u2581onura": 8177,
  "DO": 8178,
  "keen": 8179,
  "\u2581Miniaplikazioa": 8180,
  "\u2581aldizkari": 8181,
  "\u2581devuelve": 8182,
  "\u2581inongo": 8183,
  "\u2581jaisten": 8184,
  "\u2581textos": 8185,
  "\u2581CA": 8186,
  "\u2581Tel": 8187,
  "\u2581arreglar": 8188,
  "\u2581biziko": 8189,
  "\u2581bukaera": 8190,
  "\u2581erruki": 8191,
  "\u2581le\u00eddo": 8192,
  "\u2581sinple": 8193,
  "br": 8194,
  "iste": 8195,
  "\u2581Mb": 8196,
  "\u2581Pin": 8197,
  "\u2581Podemos": 8198,
  "\u2581claridad": 8199,
  "\u2581electr\u00f3nica": 8200,
  "\u2581kontratu": 8201,
  "\u2581onik": 8202,
  "\u2581oraingoan": 8203,
  "\u2581relacionados": 8204,
  "\u2581supongo": 8205,
  "MO": 8206,
  "\u2581Dar": 8207,
  "\u2581argiak": 8208,
  "\u2581atm": 8209,
  "\u2581destacar": 8210,
  "\u2581euroko": 8211,
  "\u2581haserretu": 8212,
  "\u2581ibaiaren": 8213,
  "\u2581zoro": 8214,
  "tzio": 8215,
  "usa": 8216,
  "\u2581Boise": 8217,
  "\u2581Dentro": 8218,
  "\u2581abiertos": 8219,
  "\u2581acompa\u00f1ar": 8220,
  "\u2581direnez": 8221,
  "\u2581enpresen": 8222,
  "\u2581extraordinaria": 8223,
  "\u2581garrasi": 8224,
  "\u2581hauetako": 8225,
  "\u2581jarritako": 8226,
  "\u2581novela": 8227,
  "\u2581partikular": 8228,
  "\u2581sentencia": 8229,
  "\u2581zenbatekoa": 8230,
  "cina": 8231,
  "ntzu": 8232,
  "\u258165": 8233,
  "\u2581Toda": 8234,
  "\u2581campamento": 8235,
  "\u2581difusi\u00f3n": 8236,
  "\u2581moderada": 8237,
  "\u2581mugatu": 8238,
  "\u2581tormenta": 8239,
  "\u2581vela": 8240,
  "Usted": 8241,
  "\u2581Portugesa": 8242,
  "\u2581acabado": 8243,
  "\u2581concreto": 8244,
  "\u2581dirigida": 8245,
  "\u2581garrantzitsuen": 8246,
  "\u2581idiota": 8247,
  "\u2581invita": 8248,
  "\u2581mutur": 8249,
  "\u2581pertsonaia": 8250,
  "\u2581programaci\u00f3n": 8251,
  "\u2581urrundu": 8252,
  "\u2581Unibertsitatean": 8253,
  "\u2581divertido": 8254,
  "\u2581sesiones": 8255,
  "\u2581zaizkie": 8256,
  "tarrek": 8257,
  "zioak": 8258,
  "\u2581erreka": 8259,
  "\u2581ospetsu": 8260,
  "\u2581preocupes": 8261,
  "-6": 8262,
  "fin": 8263,
  "\u2581Teklatua": 8264,
  "\u2581acudir": 8265,
  "\u2581adecuada": 8266,
  "\u2581bilaketa": 8267,
  "\u2581imagina": 8268,
  "\u2581jarraitzeko": 8269,
  "\u2581pide": 8270,
  "\u2581situaciones": 8271,
  "\u2581ziurtagiria": 8272,
  "Ge": 8273,
  "Orain": 8274,
  "Tu": 8275,
  "grafia": 8276,
  "int": 8277,
  "\u2581Pl": 8278,
  "\u2581Vol": 8279,
  "\u2581ambiental": 8280,
  "\u2581brillante": 8281,
  "\u2581epel": 8282,
  "\u2581esklabo": 8283,
  "\u2581ezartzeko": 8284,
  "\u2581gurutze": 8285,
  "\u2581ikertzaile": 8286,
  "\u2581marcado": 8287,
  "\u2581polit": 8288,
  "\u2581sensible": 8289,
  "\u2581txosten": 8290,
  "\u2581uda": 8291,
  "Orduan": 8292,
  "\u258148": 8293,
  "\u2581Tre": 8294,
  "\u2581segitu": 8295,
  "cci\u00f3n": 8296,
  "\u2581Ibai": 8297,
  "\u2581Pens\u00e9": 8298,
  "\u2581artes": 8299,
  "\u2581desarrolla": 8300,
  "\u2581etorkizuna": 8301,
  "\u2581reto": 8302,
  "Pro": 8303,
  "izi": 8304,
  "\u2581Datu": 8305,
  "\u2581Reno": 8306,
  "\u2581alegre": 8307,
  "\u2581irri": 8308,
  "\u2581orokorrean": 8309,
  "\u2581publikoaren": 8310,
  "\u2581umore": 8311,
  "\u2581v\u00edas": 8312,
  "-10": 8313,
  "\u2581Paris": 8314,
  "\u2581alimentos": 8315,
  "\u2581arrosa": 8316,
  "\u2581denboran": 8317,
  "\u2581necesarias": 8318,
  "Ca": 8319,
  "ore": 8320,
  "pide": 8321,
  "\u2581Alguien": 8322,
  "\u2581aparteko": 8323,
  "\u2581dieza": 8324,
  "\u2581dormido": 8325,
  "\u2581gizakume": 8326,
  "\u2581peligroso": 8327,
  "hartzaile": 8328,
  "\u2581Kazkabar": 8329,
  "\u2581anteriormente": 8330,
  "\u2581bakea": 8331,
  "\u2581club": 8332,
  "\u2581dios": 8333,
  "\u2581itxuraz": 8334,
  "\u2581laguntzea": 8335,
  "Puedes": 8336,
  "\u2581Denok": 8337,
  "\u2581diablo": 8338,
  "\u2581ezinbestekoa": 8339,
  "\u2581gunea": 8340,
  "\u2581ohitu": 8341,
  "\u2581pol": 8342,
  "\u2581vacaciones": 8343,
  "\u2581Jim": 8344,
  "\u2581MI": 8345,
  "\u2581May\u00fas": 8346,
  "\u2581aspaldi": 8347,
  "\u2581determinar": 8348,
  "\u2581ematera": 8349,
  "\u2581hombro": 8350,
  "\u2581inoren": 8351,
  "\u2581llamas": 8352,
  "\u2581proposatzen": 8353,
  "azioa": 8354,
  "miti": 8355,
  "\u2581Bounderby": 8356,
  "\u2581biribil": 8357,
  "\u2581errores": 8358,
  "\u2581esanahi": 8359,
  "\u2581honetaz": 8360,
  "\u2581itsasontzi": 8361,
  "\u2581kritika": 8362,
  "\u2581malos": 8363,
  "\u2581pantaila": 8364,
  "\u2581ukatu": 8365,
  "itatea": 8366,
  "l\u00f3": 8367,
  "\u2581Oraintxe": 8368,
  "\u2581Pete": 8369,
  "\u2581cre": 8370,
  "rena": 8371,
  "\u2581Norbait": 8372,
  "\u2581Perry": 8373,
  "\u2581Ray": 8374,
  "\u2581ezkutatzen": 8375,
  "\u2581izate": 8376,
  "\u2581kideak": 8377,
  "Todo": 8378,
  "cro": 8379,
  "dez": 8380,
  "\u258175": 8381,
  "\u2581Aldatu": 8382,
  "\u2581Brasil": 8383,
  "\u2581azpiko": 8384,
  "\u2581cenar": 8385,
  "\u2581gehitzen": 8386,
  "\u2581parar": 8387,
  "\u2581pelikula": 8388,
  "\u2581pentsatuko": 8389,
  "\u2581vaso": 8390,
  "Se\u00f1or": 8391,
  "\u2581Bro": 8392,
  "\u2581Lisa": 8393,
  "\u2581Txapelketa": 8394,
  "\u2581Zertarako": 8395,
  "\u2581diversidad": 8396,
  "\u2581eliminar": 8397,
  "\u2581lanetan": 8398,
  "\u2581orilla": 8399,
  "\u2581requiere": 8400,
  "taz": 8401,
  "\u2581Autobusez": 8402,
  "\u2581aro": 8403,
  "\u2581convertir": 8404,
  "\u2581c\u00f3digo": 8405,
  "\u2581r\u00e1pida": 8406,
  "ME": 8407,
  "Ven": 8408,
  "l\u00e1": 8409,
  "mino": 8410,
  "\u258133": 8411,
  "\u2581askoren": 8412,
  "\u2581bertze": 8413,
  "\u2581colectivo": 8414,
  "\u2581contento": 8415,
  "\u2581irme": 8416,
  "\u2581izeba": 8417,
  "\u2581probable": 8418,
  "\u2581residencia": 8419,
  "\u2581sepa": 8420,
  "\u2581subjektu": 8421,
  "\u2581zeukala": 8422,
  "\u2581zutenak": 8423,
  "\u2581Bingley": 8424,
  "\u2581Hungariarra": 8425,
  "\u2581Nere": 8426,
  "\u2581Oficial": 8427,
  "\u2581columnas": 8428,
  "\u2581detalle": 8429,
  "\u2581hezi": 8430,
  "\u2581inguratzen": 8431,
  "\u2581irakurle": 8432,
  "\u2581jaurti": 8433,
  "\u2581poz": 8434,
  "\u2581recuerda": 8435,
  "\u258138": 8436,
  "\u2581cerveza": 8437,
  "\u2581domina": 8438,
  "\u2581egokiak": 8439,
  "\u2581esandakoa": 8440,
  "\u2581estabas": 8441,
  "\u2581hortz": 8442,
  "\u2581kontutan": 8443,
  "\u25812)": 8444,
  "\u2581Politika": 8445,
  "\u2581asegurar": 8446,
  "\u2581contexto": 8447,
  "\u2581nien": 8448,
  "\u2581pasada": 8449,
  "pt": 8450,
  "p\u00e9": 8451,
  "\u2581Ciencia": 8452,
  "\u2581Deskarga": 8453,
  "\u2581Fabricek": 8454,
  "\u2581emazteak": 8455,
  "\u2581hasia": 8456,
  "\u2581irudikatzen": 8457,
  "\u2581kilometro": 8458,
  "\u2581kreditu": 8459,
  "\u2581pon\u00eda": 8460,
  "\u2581rom\u00e1nico": 8461,
  "\u2581suponer": 8462,
  "*": 8463,
  "hai": 8464,
  "\u25812011/12": 8465,
  "\u2581agerpen": 8466,
  "\u2581alcanza": 8467,
  "\u2581berba": 8468,
  "\u2581duenik": 8469,
  "\u2581etortzeko": 8470,
  "\u2581maravilloso": 8471,
  "\u2581nagoela": 8472,
  "\";": 8473,
  "cada": 8474,
  "eda": 8475,
  "ign": 8476,
  "\u2581Emakumeen": 8477,
  "\u2581Hark": 8478,
  "\u2581bikote": 8479,
  "\u2581domicilio": 8480,
  "\u2581evaluaci\u00f3n": 8481,
  "\u2581filosofo": 8482,
  "\u2581internacionales": 8483,
  "\u2581mandar": 8484,
  "\u2581necesitamos": 8485,
  "p\u00e1": 8486,
  "\u2581Ag": 8487,
  "\u2581Errenteria": 8488,
  "\u2581adultos": 8489,
  "\u2581berdea": 8490,
  "\u2581droga": 8491,
  "\u2581ele": 8492,
  "\u2581laneko": 8493,
  "\u2581p\u00edxeles": 8494,
  "\u2581\u00c1frica": 8495,
  "atzeko": 8496,
  "tado": 8497,
  "\u2581Ayuda": 8498,
  "\u2581arraza": 8499,
  "\u2581behatz": 8500,
  "\u2581estatua": 8501,
  "\u2581f\u00fatbol": 8502,
  "\u2581irain": 8503,
  "\u2581personaje": 8504,
  "\u2581preocupa": 8505,
  "\u2581urtebete": 8506,
  "\u2581zorion": 8507,
  "BIL": 8508,
  "EE": 8509,
  "Tengo": 8510,
  "ama": 8511,
  "rus": 8512,
  "\u2581biltzeko": 8513,
  "\u2581dagokio": 8514,
  "\u2581ehiza": 8515,
  "\u2581enseguida": 8516,
  "\u2581inicial": 8517,
  "\u2581irauten": 8518,
  "\u2581juzga": 8519,
  "\u2581ordaintzeko": 8520,
  "\u2581tinko": 8521,
  "95": 8522,
  "aste": 8523,
  "\u258121:00": 8524,
  "\u2581aurpegian": 8525,
  "\u2581batengatik": 8526,
  "\u2581estancia": 8527,
  "\u2581helbidea": 8528,
  "\u2581judu": 8529,
  "\u2581mehatxu": 8530,
  "\u2581onenak": 8531,
  "\u2581portaera": 8532,
  "\u2581realizadas": 8533,
  "\u2581zertarako": 8534,
  "ice": 8535,
  "idazu": 8536,
  "ordu": 8537,
  "rt": 8538,
  "\u2581Haize": 8539,
  "\u2581Isabel": 8540,
  "\u2581Museoa": 8541,
  "\u2581asmorik": 8542,
  "\u2581busti": 8543,
  "\u2581castigo": 8544,
  "\u2581eredua": 8545,
  "\u2581erretzen": 8546,
  "\u2581garaje": 8547,
  "\u2581metodo": 8548,
  "://": 8549,
  "\u2581Araba": 8550,
  "\u2581Deitu": 8551,
  "\u2581arrazoirik": 8552,
  "\u2581epi": 8553,
  "\u2581erabakitzen": 8554,
  "\u2581gatazka": 8555,
  "\u2581goibel": 8556,
  "\u2581gorputzaren": 8557,
  "\u2581hezur": 8558,
  "\u2581jarrai": 8559,
  "\u2581ponen": 8560,
  "\u2581prentsa": 8561,
  "\u2581sol\u00eda": 8562,
  "\u2581tareas": 8563,
  "\u2581txit": 8564,
  "\u2581zintzoa": 8565,
  "ise": 8566,
  "\u2581abuelo": 8567,
  "\u2581bazekien": 8568,
  "\u2581elektronikoa": 8569,
  "\u2581esposo": 8570,
  "\u2581negarrez": 8571,
  "\u2581orokorrak": 8572,
  "\u2581segurtasuna": 8573,
  "\u2581universo": 8574,
  "\u2581vidas": 8575,
  "88": 8576,
  "ales": 8577,
  "\u2581Asunci\u00f3n": 8578,
  "\u2581Garbi": 8579,
  "\u2581Laurak": 8580,
  "\u2581ciencias": 8581,
  "\u2581discos": 8582,
  "\u2581edizio": 8583,
  "\u2581fiscal": 8584,
  "\u2581irakasleak": 8585,
  "\u2581realizan": 8586,
  "84": 8587,
  "mpi": 8588,
  "\u2581Galdera": 8589,
  "\u2581amaituko": 8590,
  "\u2581beldurrik": 8591,
  "\u2581gaitezke": 8592,
  "\u2581gidari": 8593,
  "\u2581hausnarketa": 8594,
  "\u2581zuzenbide": 8595,
  "aciones": 8596,
  "eto": 8597,
  "\u2581Aitor": 8598,
  "\u2581Empresas": 8599,
  "\u2581GI": 8600,
  "\u2581Itxi": 8601,
  "\u2581NA": 8602,
  "\u2581airean": 8603,
  "\u2581balute": 8604,
  "\u2581bider": 8605,
  "\u2581gar": 8606,
  "\u2581impedir": 8607,
  "\u2581individuales": 8608,
  "\u2581termino": 8609,
  "\u2581kalera": 8610,
  "\u2581zebiltzan": 8611,
  "eg": 8612,
  "\u2581Eguraldi": 8613,
  "\u2581ben": 8614,
  "\u2581edukia": 8615,
  "\u2581in\u00fatil": 8616,
  "\u2581quitar": 8617,
  "\u2581txartel": 8618,
  "\u2581zihoala": 8619,
  "BI": 8620,
  "\u2581EEUU": 8621,
  "\u2581Lanbide": 8622,
  "\u2581aktibo": 8623,
  "\u2581argitaratua": 8624,
  "\u2581consciente": 8625,
  "\u2581eske": 8626,
  "\u2581fotograf\u00edas": 8627,
  "\u2581guda": 8628,
  "\u2581guztientzat": 8629,
  "\u2581hiriaren": 8630,
  "\u2581horrible": 8631,
  "\u2581quede": 8632,
  "PE": 8633,
  "esto": 8634,
  "grit\u00f3": 8635,
  "sch": 8636,
  "\u2581irizpide": 8637,
  "\u2581perfil": 8638,
  "\u2581porrot": 8639,
  "kako": 8640,
  "keriak": 8641,
  "\u2581Datos": 8642,
  "\u2581Felix": 8643,
  "\u2581Monte": 8644,
  "\u2581cont\u00f3": 8645,
  "\u2581deabru": 8646,
  "\u2581horizontal": 8647,
  "\u2581mueve": 8648,
  "\u2581observaci\u00f3n": 8649,
  "\u2581resistencia": 8650,
  "\u2581soportar": 8651,
  "\u2581Civil": 8652,
  "\u2581aqu\u00e9l": 8653,
  "\u2581bisitatu": 8654,
  "\u2581contrase\u00f1a": 8655,
  "\u2581egurra": 8656,
  "\u2581etor": 8657,
  "\u2581vueltas": 8658,
  "FI": 8659,
  "gina": 8660,
  "\u2581Joko": 8661,
  "\u2581Kudeaketa": 8662,
  "\u2581Mutil": 8663,
  "\u2581eszena": 8664,
  "\u2581gastu": 8665,
  "\u2581kai": 8666,
  "\u2581marko": 8667,
  "\u2581partidos": 8668,
  "\u2581ventajas": 8669,
  "arengana": 8670,
  "\u2581DA": 8671,
  "\u2581babesten": 8672,
  "\u2581betiereko": 8673,
  "\u2581denuncia": 8674,
  "\u2581egoeran": 8675,
  "\u2581jendeari": 8676,
  "\u2581lehor": 8677,
  "\u2581sustatu": 8678,
  "EK": 8679,
  "goak": 8680,
  "\u2581Hey": 8681,
  "\u2581Sara": 8682,
  "\u2581magia": 8683,
  "\u2581quedarse": 8684,
  "\u2581razonable": 8685,
  "\u2581risa": 8686,
  "\u2581suyos": 8687,
  "\u2581voces": 8688,
  "-11": 8689,
  "barri": 8690,
  "zun": 8691,
  "\u2581Otra": 8692,
  "\u2581Zuzen": 8693,
  "\u2581bizitzen": 8694,
  "\u2581gordetzeko": 8695,
  "\u2581hego": 8696,
  "\u2581osorik": 8697,
  "\u2581temo": 8698,
  "cel": 8699,
  "igo": 8700,
  "\u2581baitzituen": 8701,
  "\u2581bertso": 8702,
  "\u2581cae": 8703,
  "\u2581gorantz": 8704,
  "\u2581indica": 8705,
  "\u2581itzul": 8706,
  "\u2581manda": 8707,
  "\u2581tenplu": 8708,
  "\u2581txa": 8709,
  "81": 8710,
  "rrak": 8711,
  "ute": 8712,
  "\u2581And": 8713,
  "\u2581Detalle": 8714,
  "\u2581euskarazko": 8715,
  "\u2581gainontzeko": 8716,
  "\u2581naturalmente": 8717,
  "\u2581prisi\u00f3n": 8718,
  "\u2581produktuak": 8719,
  "\u2581trae": 8720,
  "\u2581utilizado": 8721,
  "iba": 8722,
  "icos": 8723,
  "rita": 8724,
  "tilla": 8725,
  "\u2581Zabal": 8726,
  "\u2581egile": 8727,
  "\u2581existentes": 8728,
  "\u2581fr\u00eda": 8729,
  "\u2581interna": 8730,
  "\u2581lantegi": 8731,
  "\u2581suficientemente": 8732,
  "\u2581tra\u00eddo": 8733,
  "\u2581zientifiko": 8734,
  "Nos": 8735,
  "cciones": 8736,
  "ienta": 8737,
  "\u2581Arriaga": 8738,
  "\u2581Miren": 8739,
  "\u2581Segi": 8740,
  "\u2581arraroa": 8741,
  "\u2581edizioa": 8742,
  "\u2581indarkeria": 8743,
  "\u2581llevar\u00e1": 8744,
  "\u2581tradicionales": 8745,
  "\u2581turco": 8746,
  "\u2581ventaja": 8747,
  "\u2581zaudela": 8748,
  "\u2581zihoazen": 8749,
  "lidad": 8750,
  "\u2581Bolumen": 8751,
  "\u2581Estatuko": 8752,
  "\u2581ardi": 8753,
  "\u2581comp": 8754,
  "\u2581conciertos": 8755,
  "\u2581cortar": 8756,
  "\u2581erabakiak": 8757,
  "\u2581est\u00e1bamos": 8758,
  "\u2581garantizar": 8759,
  "retatik": 8760,
  "\u258107": 8761,
  "\u2581Kepa": 8762,
  "\u2581baziren": 8763,
  "\u2581decidi\u00f3": 8764,
  "\u2581finalidad": 8765,
[...]
